{
  "version": "1.0",
  "truncation": null,
  "padding": null,
  "added_tokens": [
    {
      "id": 0,
      "content": "[PAD]",
      "single_word": false,
      "lstrip": false,
      "rstrip": false,
      "normalized": false,
      "special": true
    },
    {
      "id": 1,
      "content": "[UNK]",
      "single_word": false,
      "lstrip": false,
      "rstrip": false,
      "normalized": false,
      "special": true
    },
    {
      "id": 2,
      "content": "[CLS]",
      "single_word": false,
      "lstrip": false,
      "rstrip": false,
      "normalized": false,
      "special": true
    },
    {
      "id": 3,
      "content": "[SEP]",
      "single_word": false,
      "lstrip": false,
      "rstrip": false,
      "normalized": false,
      "special": true
    },
    {
      "id": 4,
      "content": "[IMG]",
      "single_word": false,
      "lstrip": false,
      "rstrip": false,
      "normalized": false,
      "special": true
    },
    {
      "id": 5,
      "content": "[/IMG]",
      "single_word": false,
      "lstrip": false,
      "rstrip": false,
      "normalized": false,
      "special": true
    }
  ],
  "normalizer": null,
  "pre_tokenizer": {
    "type": "Whitespace"
  },
  "post_processor": null,
  "decoder": null,
  "model": {
    "type": "BPE",
    "dropout": null,
    "unk_token": null,
    "continuing_subword_prefix": null,
    "end_of_word_suffix": null,
    "fuse_unk": false,
    "byte_fallback": false,
    "ignore_merges": false,
    "vocab": {
      "[PAD]": 0,
      "[UNK]": 1,
      "[CLS]": 2,
      "[SEP]": 3,
      "[IMG]": 4,
      "[/IMG]": 5,
      "!": 6,
      "\"": 7,
      "%": 8,
      "'": 9,
      "(": 10,
      ")": 11,
      "+": 12,
      ",": 13,
      "-": 14,
      ".": 15,
      "/": 16,
      "0": 17,
      "1": 18,
      "2": 19,
      "3": 20,
      "4": 21,
      "5": 22,
      "6": 23,
      "7": 24,
      "8": 25,
      "9": 26,
      ":": 27,
      ";": 28,
      "<": 29,
      "=": 30,
      ">": 31,
      "?": 32,
      "A": 33,
      "B": 34,
      "C": 35,
      "D": 36,
      "E": 37,
      "F": 38,
      "G": 39,
      "H": 40,
      "I": 41,
      "J": 42,
      "K": 43,
      "L": 44,
      "M": 45,
      "N": 46,
      "O": 47,
      "P": 48,
      "Q": 49,
      "R": 50,
      "S": 51,
      "T": 52,
      "U": 53,
      "V": 54,
      "W": 55,
      "X": 56,
      "Y": 57,
      "Z": 58,
      "[": 59,
      "]": 60,
      "_": 61,
      "`": 62,
      "a": 63,
      "b": 64,
      "c": 65,
      "d": 66,
      "e": 67,
      "f": 68,
      "g": 69,
      "h": 70,
      "i": 71,
      "j": 72,
      "k": 73,
      "l": 74,
      "m": 75,
      "n": 76,
      "o": 77,
      "p": 78,
      "q": 79,
      "r": 80,
      "s": 81,
      "t": 82,
      "u": 83,
      "v": 84,
      "w": 85,
      "x": 86,
      "y": 87,
      "z": 88,
      "{": 89,
      "|": 90,
      "}": 91,
      "~": 92,
      "": 93,
      "¨": 94,
      "°": 95,
      "±": 96,
      "³": 97,
      "·": 98,
      "º": 99,
      "¼": 100,
      "½": 101,
      "Û": 102,
      "ä": 103,
      "è": 104,
      "é": 105,
      "í": 106,
      "ñ": 107,
      "ü": 108,
      "ĺ": 109,
      "ņ": 110,
      "ȕ": 111,
      "ʊ": 112,
      "ʌ": 113,
      "ˆ": 114,
      "˷": 115,
      "΀": 116,
      "–": 117,
      "—": 118,
      "‘": 119,
      "’": 120,
      "“": 121,
      "”": 122,
      "…": 123,
      "an": 124,
      "er": 125,
      "en": 126,
      "at": 127,
      "ak": 128,
      "ar": 129,
      "ang": 130,
      "men": 131,
      "ng": 132,
      "ah": 133,
      "di": 134,
      "em": 135,
      "al": 136,
      "as": 137,
      "ber": 138,
      "tu": 139,
      "el": 140,
      "am": 141,
      "yg": 142,
      "kan": 143,
      "bu": 144,
      "ti": 145,
      "ya": 146,
      "un": 147,
      "ai": 148,
      "se": 149,
      "ke": 150,
      "su": 151,
      "ap": 152,
      "per": 153,
      "in": 154,
      "meng": 155,
      "au": 156,
      "--": 157,
      "si": 158,
      "ter": 159,
      "mem": 160,
      "sb": 161,
      "ku": 162,
      "or": 163,
      "pen": 164,
      "dsb": 165,
      "da": 166,
      ");": 167,
      "il": 168,
      "ur": 169,
      "nya": 170,
      "is": 171,
      "ing": 172,
      "it": 173,
      "ba": 174,
      "dak": 175,
      "tuk": 176,
      "du": 177,
      "dan": 178,
      "atau": 179,
      "akan": 180,
      "ka": 181,
      "ja": 182,
      "ol": 183,
      "dng": 184,
      "ara": 185,
      "atu": 186,
      "um": 187,
      "tidak": 188,
      "untuk": 189,
      "bi": 190,
      "gi": 191,
      "ek": 192,
      "on": 193,
      "pu": 194,
      "ik": 195,
      "ga": 196,
      "orang": 197,
      "meny": 198,
      "us": 199,
      "tan": 200,
      "et": 201,
      "es": 202,
      "im": 203,
      "pd": 204,
      "ir": 205,
      "dr": 206,
      "eng": 207,
      "mel": 208,
      "ung": 209,
      "angan": 210,
      "atan": 211,
      "ok": 212,
      "ul": 213,
      "ut": 214,
      "asi": 215,
      "dl": 216,
      "dah": 217,
      "ker": 218,
      "itu": 219,
      "ben": 220,
      "bar": 221,
      "uk": 222,
      "mer": 223,
      "ama": 224,
      "sa": 225,
      "suatu": 226,
      "ong": 227,
      "om": 228,
      "tem": 229,
      "pa": 230,
      "dap": 231,
      "ta": 232,
      "ri": 233,
      "pan": 234,
      "ata": 235,
      "peng": 236,
      "pem": 237,
      "kel": 238,
      "bah": 239,
      "pat": 240,
      "bang": 241,
      "bel": 242,
      "ari": 243,
      "asa": 244,
      "han": 245,
      "jadi": 246,
      "ban": 247,
      "mu": 248,
      "tt": 249,
      "ali": 250,
      "):": 251,
      "ati": 252,
      "ia": 253,
      "ain": 254,
      "amp": 255,
      "dapat": 256,
      "sp": 257,
      "ki": 258,
      "wa": 259,
      "sel": 260,
      "eg": 261,
      "ra": 262,
      "ada": 263,
      "bat": 264,
      "ro": 265,
      "lu": 266,
      "yak": 267,
      "le": 268,
      "hi": 269,
      "la": 270,
      "spt": 271,
      "ny": 272,
      "ju": 273,
      "sen": 274,
      "hal": 275,
      "air": 276,
      "cara": 277,
      "dang": 278,
      "bung": 279,
      "ting": 280,
      "be": 281,
      "ot": 282,
      "menjadi": 283,
      "kec": 284,
      "sesuatu": 285,
      "eh": 286,
      "ser": 287,
      "angg": 288,
      "tel": 289,
      "buat": 290,
      "uh": 291,
      "aran": 292,
      "angk": 293,
      "menc": 294,
      "tah": 295,
      "mengg": 296,
      "alan": 297,
      "li": 298,
      "sem": 299,
      "tempat": 300,
      "kem": 301,
      "oleh": 302,
      "ji": 303,
      "aku": 304,
      "kr": 305,
      "asan": 306,
      "hu": 307,
      "sudah": 308,
      "bagi": 309,
      "tum": 310,
      "ark": 311,
      "ten": 312,
      "oh": 313,
      "kur": 314,
      "ag": 315,
      "pak": 316,
      "man": 317,
      "sek": 318,
      "ita": 319,
      "diri": 320,
      "bes": 321,
      "te": 322,
      "bur": 323,
      "ala": 324,
      "lan": 325,
      "pi": 326,
      "bil": 327,
      "alu": 328,
      "pel": 329,
      "ca": 330,
      "beri": 331,
      "wan": 332,
      "tik": 333,
      "pe": 334,
      "nyi": 335,
      "mas": 336,
      "alam": 337,
      "sbg": 338,
      "de": 339,
      "na": 340,
      "pb": 341,
      "anak": 342,
      "hati": 343,
      "bai": 344,
      "apa": 345,
      "ger": 346,
      "tr": 347,
      "bunyi": 348,
      "aki": 349,
      "ay": 350,
      "ahan": 351,
      "kecil": 352,
      "pun": 353,
      "har": 354,
      "ken": 355,
      "war": 356,
      "kul": 357,
      "besar": 358,
      "kata": 359,
      "lain": 360,
      "krn": 361,
      "gan": 362,
      "sang": 363,
      "memper": 364,
      "aman": 365,
      "barang": 366,
      "alat": 367,
      "gun": 368,
      "bak": 369,
      "ma": 370,
      "gel": 371,
      "kar": 372,
      "me": 373,
      "buatan": 374,
      "api": 375,
      "der": 376,
      "pas": 377,
      "tumbu": 378,
      "jalan": 379,
      "banyak": 380,
      "aha": 381,
      "os": 382,
      "tak": 383,
      "arah": 384,
      "ha": 385,
      "arkan": 386,
      "jang": 387,
      "bentuk": 388,
      "bagian": 389,
      "satu": 390,
      "dik": 391,
      "pro": 392,
      "has": 393,
      "rum": 394,
      "kpd": 395,
      "ant": 396,
      "sama": 397,
      "kap": 398,
      "uan": 399,
      "duk": 400,
      "ad": 401,
      "sur": 402,
      "dung": 403,
      "bin": 404,
      "perbuatan": 405,
      "up": 406,
      "re": 407,
      "pakai": 408,
      "kl": 409,
      "uang": 410,
      "og": 411,
      "san": 412,
      "alah": 413,
      "dua": 414,
      "lah": 415,
      "makan": 416,
      "aj": 417,
      "baik": 418,
      "bal": 419,
      "sif": 420,
      "yang": 421,
      "min": 422,
      "bahan": 423,
      "but": 424,
      "hasil": 425,
      "ih": 426,
      "tur": 427,
      "wak": 428,
      "lebi": 429,
      "tung": 430,
      "uran": 431,
      "atas": 432,
      "inya": 433,
      "isi": 434,
      "atang": 435,
      "telah": 436,
      "mul": 437,
      "hidu": 438,
      "yu": 439,
      "lebih": 440,
      "ko": 441,
      "annya": 442,
      "tanah": 443,
      "mak": 444,
      "tet": 445,
      "eker": 446,
      "sangat": 447,
      "tang": 448,
      "dia": 449,
      "ses": 450,
      "kep": 451,
      "sifat": 452,
      "buah": 453,
      "rumah": 454,
      "lang": 455,
      "neg": 456,
      "kal": 457,
      "tangan": 458,
      "sus": 459,
      "gu": 460,
      "gar": 461,
      "keada": 462,
      "sekali": 463,
      "ding": 464,
      "lem": 465,
      "ohon": 466,
      "peny": 467,
      "ci": 468,
      "sung": 469,
      "ekerja": 470,
      "cer": 471,
      "sia": 472,
      "bag": 473,
      "nama": 474,
      "bul": 475,
      "--;": 476,
      "keadaan": 477,
      "yar": 478,
      "ram": 479,
      "tar": 480,
      "teng": 481,
      "tam": 482,
      "kam": 483,
      "pohon": 484,
      "akukan": 485,
      "tumbuhan": 486,
      "ikan": 487,
      "warna": 488,
      "tim": 489,
      "kat": 490,
      "gal": 491,
      "én": 492,
      "proses": 493,
      "apan": 494,
      "mata": 495,
      "wah": 496,
      "yai": 497,
      "ini": 498,
      "kum": 499,
      "~;": 500,
      "dipakai": 501,
      "aut": 502,
      "hen": 503,
      "jan": 504,
      "hidup": 505,
      "menye": 506,
      "waktu": 507,
      "das": 508,
      "dibuat": 509,
      "mend": 510,
      "unan": 511,
      "paya": 512,
      "lam": 513,
      "bun": 514,
      "ru": 515,
      "kayu": 516,
      "memberi": 517,
      "aan": 518,
      "mengu": 519,
      "dara": 520,
      "Kim": 521,
      "panjang": 522,
      "erah": 523,
      "sal": 524,
      "buh": 525,
      "asih": 526,
      "pin": 527,
      "mempun": 528,
      "aw": 529,
      "sis": 530,
      "mempunyai": 531,
      "tinggi": 532,
      "cak": 533,
      "dar": 534,
      "tun": 535,
      "jar": 536,
      "bagai": 537,
      "secara": 538,
      "usaha": 539,
      "buk": 540,
      "kulit": 541,
      "bungan": 542,
      "menjadikan": 543,
      "jen": 544,
      "hari": 545,
      "mo": 546,
      "kelu": 547,
      "pis": 548,
      "hing": 549,
      "uru": 550,
      "gen": 551,
      "membuat": 552,
      "keras": 553,
      "sak": 554,
      "benda": 555,
      "dai": 556,
      "dil": 557,
      "omp": 558,
      "tentu": 559,
      "tas": 560,
      "tin": 561,
      "asanya": 562,
      "gunakan": 563,
      "atkan": 564,
      "antara": 565,
      "belum": 566,
      "samp": 567,
      "iran": 568,
      "daun": 569,
      "hingga": 570,
      "op": 571,
      "sam": 572,
      "diper": 573,
      "bab": 574,
      "kun": 575,
      "uri": 576,
      "jah": 577,
      "peri": 578,
      "batu": 579,
      "supaya": 580,
      "kon": 581,
      "cu": 582,
      "mat": 583,
      "ob": 584,
      "muka": 585,
      "kain": 586,
      "ce": 587,
      "seorang": 588,
      "lis": 589,
      "--,": 590,
      "jak": 591,
      "jung": 592,
      "kaki": 593,
      "beru": 594,
      "mengen": 595,
      "gem": 596,
      "gam": 597,
      "gul": 598,
      "mi": 599,
      "berl": 600,
      "pah": 601,
      "etak": 602,
      "ahu": 603,
      "bas": 604,
      "daerah": 605,
      "mere": 606,
      "asaan": 607,
      "zat": 608,
      "bis": 609,
      "laut": 610,
      "kepala": 611,
      "gas": 612,
      "mengan": 613,
      "dag": 614,
      "mengh": 615,
      "dek": 616,
      "terl": 617,
      "ren": 618,
      "dalam": 619,
      "pekerja": 620,
      "pung": 621,
      "benar": 622,
      "par": 623,
      "jau": 624,
      "negara": 625,
      "penyak": 626,
      "jam": 627,
      "kurang": 628,
      "puan": 629,
      "penyakit": 630,
      "tai": 631,
      "ék": 632,
      "menger": 633,
      "intah": 634,
      "sin": 635,
      "memba": 636,
      "lagi": 637,
      "juk": 638,
      "menyer": 639,
      "suka": 640,
      "cam": 641,
      "tor": 642,
      "biasanya": 643,
      "cin": 644,
      "gerak": 645,
      "tal": 646,
      "teg": 647,
      "urus": 648,
      "melakukan": 649,
      "atakan": 650,
      "keluar": 651,
      "cang": 652,
      "dakan": 653,
      "berk": 654,
      "ran": 655,
      "menga": 656,
      "masuk": 657,
      "lap": 658,
      "tali": 659,
      "tup": 660,
      "hendak": 661,
      "digunakan": 662,
      "ep": 663,
      "selalu": 664,
      "perihal": 665,
      "surat": 666,
      "ongan": 667,
      "cap": 668,
      "kita": 669,
      "obat": 670,
      "tubuh": 671,
      "sum": 672,
      "can": 673,
      "hat": 674,
      "main": 675,
      "bersi": 676,
      "puti": 677,
      "sul": 678,
      "mener": 679,
      "ilmu": 680,
      "menu": 681,
      "kung": 682,
      "anya": 683,
      "aikan": 684,
      "bawah": 685,
      "pik": 686,
      "kut": 687,
      "saja": 688,
      "binatang": 689,
      "so": 690,
      "olah": 691,
      "babkan": 692,
      "ingan": 693,
      "sedang": 694,
      "tri": 695,
      "engk": 696,
      "car": 697,
      "unya": 698,
      "jenis": 699,
      "bersifat": 700,
      "tir": 701,
      "laki": 702,
      "badan": 703,
      "tetapi": 704,
      "seg": 705,
      "bol": 706,
      "membu": 707,
      "bau": 708,
      "hubungan": 709,
      "dikit": 710,
      "dir": 711,
      "din": 712,
      "mengel": 713,
      "pul": 714,
      "dis": 715,
      "pal": 716,
      "duduk": 717,
      "dur": 718,
      "eri": 719,
      "bulu": 720,
      "deng": 721,
      "menj": 722,
      "tanda": 723,
      "ima": 724,
      "hak": 725,
      "belah": 726,
      "harus": 727,
      "makanan": 728,
      "ge": 729,
      "sik": 730,
      "ian": 731,
      "kir": 732,
      "bahasa": 733,
      "rak": 734,
      "sampai": 735,
      "tua": 736,
      "angkat": 737,
      "pol": 738,
      "menyel": 739,
      "berwarna": 740,
      "adv": 741,
      "th": 742,
      "angkan": 743,
      "tis": 744,
      "sedikit": 745,
      "),": 746,
      "akai": 747,
      "sendiri": 748,
      "ukan": 749,
      "ér": 750,
      "tuju": 751,
      "pekerjaan": 752,
      "cat": 753,
      "cing": 754,
      "luar": 755,
      "kapal": 756,
      "cel": 757,
      "pur": 758,
      "ikat": 759,
      "angin": 760,
      "menur": 761,
      "kuat": 762,
      "usia": 763,
      "akh": 764,
      "biasa": 765,
      "bunga": 766,
      "camp": 767,
      "pemer": 768,
      "mereka": 769,
      "putih": 770,
      "aya": 771,
      "mes": 772,
      "ukur": 773,
      "berapa": 774,
      "meman": 775,
      "dat": 776,
      "baru": 777,
      "den": 778,
      "sl": 779,
      "menge": 780,
      "mendapat": 781,
      "segala": 782,
      "diberi": 783,
      "arang": 784,
      "nasi": 785,
      "ilik": 786,
      "keti": 787,
      "sakit": 788,
      "tertentu": 789,
      "olo": 790,
      "jangan": 791,
      "kas": 792,
      "mati": 793,
      "perem": 794,
      "jur": 795,
      "beras": 796,
      "sehingga": 797,
      "garis": 798,
      "mudah": 799,
      "do": 800,
      "dam": 801,
      "suk": 802,
      "pes": 803,
      "mal": 804,
      "menar": 805,
      "ahkan": 806,
      "bukan": 807,
      "perahu": 808,
      "memas": 809,
      "etah": 810,
      "thd": 811,
      "tif": 812,
      "utama": 813,
      "kak": 814,
      "leng": 815,
      "angi": 816,
      "burung": 817,
      "bus": 818,
      "suara": 819,
      "inan": 820,
      "isan": 821,
      "masih": 822,
      "dih": 823,
      "tamp": 824,
      "sim": 825,
      "ling": 826,
      "darah": 827,
      "saya": 828,
      "macam": 829,
      "bangsa": 830,
      "wat": 831,
      "bali": 832,
      "tumbuh": 833,
      "perempuan": 834,
      "akar": 835,
      "beberapa": 836,
      "ambil": 837,
      "lek": 838,
      "any": 839,
      "terdapat": 840,
      "ayam": 841,
      "tangg": 842,
      "terjadi": 843,
      "mele": 844,
      "ab": 845,
      "bulan": 846,
      "tahan": 847,
      "merah": 848,
      "gol": 849,
      "jakan": 850,
      "ré": 851,
      "mulut": 852,
      "cur": 853,
      "memu": 854,
      "aian": 855,
      "besi": 856,
      "bangan": 857,
      "ibu": 858,
      "menyebabkan": 859,
      "menun": 860,
      "tahun": 861,
      "manusia": 862,
      "atur": 863,
      "tiap": 864,
      "dasar": 865,
      "ologi": 866,
      "cair": 867,
      "dok": 868,
      "pang": 869,
      "bir": 870,
      "akhir": 871,
      "jum": 872,
      "sing": 873,
      "halus": 874,
      "tetap": 875,
      "uruh": 876,
      "udara": 877,
      "berbentuk": 878,
      "atuh": 879,
      "hanya": 880,
      "kol": 881,
      "emas": 882,
      "berat": 883,
      "buku": 884,
      "organ": 885,
      "berupa": 886,
      "dem": 887,
      "memakai": 888,
      "kus": 889,
      "tanpa": 890,
      "isme": 891,
      "batang": 892,
      "menggun": 893,
      "dise": 894,
      "uhan": 895,
      "keku": 896,
      "sud": 897,
      "mau": 898,
      "menem": 899,
      "kali": 900,
      "bing": 901,
      "akkan": 902,
      "des": 903,
      "hit": 904,
      "para": 905,
      "akat": 906,
      "mengenai": 907,
      "lama": 908,
      "untung": 909,
      "anti": 910,
      "tra": 911,
      "ili": 912,
      "upakan": 913,
      "belak": 914,
      "pemerintah": 915,
      "he": 916,
      "kup": 917,
      "habis": 918,
      "gang": 919,
      "ujung": 920,
      "daya": 921,
      "tengah": 922,
      "menurut": 923,
      "berjalan": 924,
      "tus": 925,
      "lubang": 926,
      "ét": 927,
      "isti": 928,
      "mengandung": 929,
      "kah": 930,
      "yat": 931,
      "ulu": 932,
      "agak": 933,
      "cok": 934,
      "maksud": 935,
      "lar": 936,
      "rasa": 937,
      "salah": 938,
      "berbuat": 939,
      "Al": 940,
      "bo": 941,
      "str": 942,
      "log": 943,
      "co": 944,
      "tara": 945,
      "ami": 946,
      "trik": 947,
      "cepat": 948,
      "kering": 949,
      "angkap": 950,
      "datang": 951,
      "ketika": 952,
      "teri": 953,
      "batan": 954,
      "depan": 955,
      "hil": 956,
      "pandai": 957,
      "otor": 958,
      "kuk": 959,
      "bek": 960,
      "bekerja": 961,
      "seng": 962,
      "merupakan": 963,
      "tahu": 964,
      "00": 965,
      "bumi": 966,
      "ina": 967,
      "minyak": 968,
      "del": 969,
      "Fis": 970,
      "sir": 971,
      "hadap": 972,
      "lalu": 973,
      "msl": 974,
      "osi": 975,
      "isasi": 976,
      "ont": 977,
      "raja": 978,
      "pulan": 979,
      "bong": 980,
      "cah": 981,
      "rem": 982,
      "perasaan": 983,
      "kin": 984,
      "aik": 985,
      "eta": 986,
      "ukuran": 987,
      "dian": 988,
      "bay": 989,
      "agama": 990,
      "aga": 991,
      "malam": 992,
      "ahaya": 993,
      "ihat": 994,
      "arti": 995,
      "berbagai": 996,
      "umum": 997,
      "puk": 998,
      "gambar": 999,
      "juga": 1000,
      "tinggal": 1001,
      "menim": 1002,
      "itas": 1003,
      "mana": 1004,
      "ompok": 1005,
      "dangan": 1006,
      "to": 1007,
      "melihat": 1008,
      "rambut": 1009,
      "menggunakan": 1010,
      "Dok": 1011,
      "len": 1012,
      "kanan": 1013,
      "pikiran": 1014,
      "jian": 1015,
      "sep": 1016,
      "seseorang": 1017,
      "pakaian": 1018,
      "kom": 1019,
      "beran": 1020,
      "mengem": 1021,
      "put": 1022,
      "satuan": 1023,
      "ajaran": 1024,
      "bit": 1025,
      "jatuh": 1026,
      "harga": 1027,
      "cahaya": 1028,
      "guh": 1029,
      "mening": 1030,
      "panas": 1031,
      "ganti": 1032,
      "jumlah": 1033,
      "lo": 1034,
      "tulis": 1035,
      "menyatakan": 1036,
      "ham": 1037,
      "bantu": 1038,
      "lawan": 1039,
      "lin": 1040,
      "luk": 1041,
      "kese": 1042,
      "apkan": 1043,
      "kembali": 1044,
      "kena": 1045,
      "dal": 1046,
      "angka": 1047,
      "negeri": 1048,
      "kelompok": 1049,
      "beli": 1050,
      "senang": 1051,
      "tugas": 1052,
      "gil": 1053,
      "hor": 1054,
      "terutama": 1055,
      "okok": 1056,
      "sungai": 1057,
      "bergerak": 1058,
      "kedua": 1059,
      "yarakat": 1060,
      "indah": 1061,
      "baju": 1062,
      "jel": 1063,
      "suh": 1064,
      "apak": 1065,
      "kuda": 1066,
      "adat": 1067,
      "hitam": 1068,
      "belakang": 1069,
      "menen": 1070,
      "perut": 1071,
      "penga": 1072,
      "ulang": 1073,
      "raf": 1074,
      "mencari": 1075,
      "masyarakat": 1076,
      "io": 1077,
      "kor": 1078,
      "ping": 1079,
      "membi": 1080,
      "ajar": 1081,
      "lak": 1082,
      "lum": 1083,
      "saling": 1084,
      "mobil": 1085,
      "tampak": 1086,
      "logam": 1087,
      "danya": 1088,
      "muda": 1089,
      "sar": 1090,
      "undang": 1091,
      "kaw": 1092,
      "hukum": 1093,
      "jauh": 1094,
      "her": 1095,
      "kara": 1096,
      "rap": 1097,
      "ket": 1098,
      "daging": 1099,
      "fil": 1100,
      "tong": 1101,
      "awan": 1102,
      "sau": 1103,
      "ua": 1104,
      "mene": 1105,
      "awat": 1106,
      "titik": 1107,
      "menyim": 1108,
      "kertas": 1109,
      "cor": 1110,
      "berkel": 1111,
      "merasa": 1112,
      "pengan": 1113,
      "bola": 1114,
      "abu": 1115,
      "fer": 1116,
      "éng": 1117,
      "anj": 1118,
      "sebelum": 1119,
      "terus": 1120,
      "bila": 1121,
      "alui": 1122,
      "mengelu": 1123,
      "jari": 1124,
      "bangunan": 1125,
      "menyem": 1126,
      "kota": 1127,
      "él": 1128,
      "amat": 1129,
      "sungguh": 1130,
      "gung": 1131,
      "br": 1132,
      "dikan": 1133,
      "sebelah": 1134,
      "keter": 1135,
      "kumpulan": 1136,
      "In": 1137,
      "bam": 1138,
      "gur": 1139,
      "pengetah": 1140,
      "minum": 1141,
      "kalau": 1142,
      "pengetahuan": 1143,
      "penting": 1144,
      "bakar": 1145,
      "tek": 1146,
      "tidur": 1147,
      "ori": 1148,
      "bicara": 1149,
      "otong": 1150,
      "go": 1151,
      "tiga": 1152,
      "ni": 1153,
      "aturan": 1154,
      "don": 1155,
      "khu": 1156,
      "berhubungan": 1157,
      "mengi": 1158,
      "mengambil": 1159,
      "terbuat": 1160,
      "turun": 1161,
      "Bio": 1162,
      "itan": 1163,
      "henti": 1164,
      "res": 1165,
      "bersama": 1166,
      "pergi": 1167,
      "bidang": 1168,
      "pus": 1169,
      "batas": 1170,
      "usahaan": 1171,
      "radi": 1172,
      "anggap": 1173,
      "sekolah": 1174,
      "mengeluarkan": 1175,
      "kai": 1176,
      "terdiri": 1177,
      "tenaga": 1178,
      "mah": 1179,
      "hkan": 1180,
      "menya": 1181,
      "alkan": 1182,
      "tulang": 1183,
      "mus": 1184,
      "campur": 1185,
      "mesin": 1186,
      "khusus": 1187,
      "aksi": 1188,
      "perkara": 1189,
      "dukan": 1190,
      "atif": 1191,
      "serta": 1192,
      "agar": 1193,
      "cerita": 1194,
      "kuning": 1195,
      "rendah": 1196,
      "tujuan": 1197,
      "kim": 1198,
      "menan": 1199,
      "perkata": 1200,
      "perusahaan": 1201,
      "terbang": 1202,
      "gir": 1203,
      "irkan": 1204,
      "menggel": 1205,
      "gula": 1206,
      "lim": 1207,
      "mon": 1208,
      "mulai": 1209,
      "sistem": 1210,
      "boleh": 1211,
      "itik": 1212,
      "ahari": 1213,
      "jukan": 1214,
      "wanita": 1215,
      "iti": 1216,
      "setelah": 1217,
      "onal": 1218,
      "bilangan": 1219,
      "jukkan": 1220,
      "bor": 1221,
      "ahi": 1222,
      "kemu": 1223,
      "listrik": 1224,
      "matahari": 1225,
      "cau": 1226,
      "ota": 1227,
      "disi": 1228,
      "musik": 1229,
      "jika": 1230,
      "cabang": 1231,
      "rah": 1232,
      "ahli": 1233,
      "buka": 1234,
      "tiang": 1235,
      "unsur": 1236,
      "permuka": 1237,
      "memer": 1238,
      "menyu": 1239,
      "iri": 1240,
      "egang": 1241,
      "jal": 1242,
      "derita": 1243,
      "setiap": 1244,
      "lihat": 1245,
      "kit": 1246,
      "rus": 1247,
      "ensi": 1248,
      "imat": 1249,
      "melalui": 1250,
      "ungan": 1251,
      "ungsi": 1252,
      "telur": 1253,
      "hasilkan": 1254,
      "dingan": 1255,
      "bulat": 1256,
      "Tuhan": 1257,
      "marah": 1258,
      "tol": 1259,
      "atom": 1260,
      "dahulu": 1261,
      "mengger": 1262,
      "Allah": 1263,
      "Ling": 1264,
      "masa": 1265,
      "yaan": 1266,
      "buruk": 1267,
      "kil": 1268,
      "tasi": 1269,
      "dip": 1270,
      "dut": 1271,
      "jawa": 1272,
      "pasang": 1273,
      "permukaan": 1274,
      "elek": 1275,
      "pertan": 1276,
      "ekat": 1277,
      "impin": 1278,
      "itung": 1279,
      "tepi": 1280,
      "bon": 1281,
      "dé": 1282,
      "kau": 1283,
      "akal": 1284,
      "say": 1285,
      "berbunyi": 1286,
      "perang": 1287,
      "dasarkan": 1288,
      "cita": 1289,
      "huru": 1290,
      "tingkat": 1291,
      "cakap": 1292,
      "menyen": 1293,
      "tanaman": 1294,
      "hujan": 1295,
      "mainan": 1296,
      "rapat": 1297,
      "~,": 1298,
      "tiba": 1299,
      "penc": 1300,
      "benang": 1301,
      "padi": 1302,
      "memberikan": 1303,
      "af": 1304,
      "semua": 1305,
      "agn": 1306,
      "keluarga": 1307,
      "mis": 1308,
      "naik": 1309,
      "tari": 1310,
      "unia": 1311,
      "pendapat": 1312,
      "dilakukan": 1313,
      "akibat": 1314,
      "iliki": 1315,
      "hamp": 1316,
      "kabar": 1317,
      "nyata": 1318,
      "pihak": 1319,
      "balik": 1320,
      "pit": 1321,
      "kami": 1322,
      "membawa": 1323,
      "dong": 1324,
      "ubahan": 1325,
      "lepas": 1326,
      "menarik": 1327,
      "cek": 1328,
      "guna": 1329,
      "tul": 1330,
      "tukan": 1331,
      "beng": 1332,
      "lebar": 1333,
      "ayah": 1334,
      "perkataan": 1335,
      "ver": 1336,
      "yung": 1337,
      "senj": 1338,
      "hutan": 1339,
      "kimia": 1340,
      "fo": 1341,
      "ruang": 1342,
      "tro": 1343,
      "turut": 1344,
      "mun": 1345,
      "berisi": 1346,
      "buahnya": 1347,
      "upa": 1348,
      "ukkan": 1349,
      "jual": 1350,
      "anggota": 1351,
      "gantung": 1352,
      "ac": 1353,
      "yah": 1354,
      "mendeng": 1355,
      "meninggal": 1356,
      "for": 1357,
      "wai": 1358,
      "aksan": 1359,
      "bawa": 1360,
      "kerja": 1361,
      "bengk": 1362,
      "cen": 1363,
      "menam": 1364,
      "diam": 1365,
      "dimakan": 1366,
      "iling": 1367,
      "bebas": 1368,
      "bulkan": 1369,
      "apai": 1370,
      "sil": 1371,
      "ilan": 1372,
      "jaga": 1373,
      "puh": 1374,
      "iring": 1375,
      "ombak": 1376,
      "dp": 1377,
      "esia": 1378,
      "tangk": 1379,
      "hidupan": 1380,
      "huruf": 1381,
      "cem": 1382,
      "és": 1383,
      "hijau": 1384,
      "bentuknya": 1385,
      "kalimat": 1386,
      "wi": 1387,
      "zaman": 1388,
      "butan": 1389,
      "sesudah": 1390,
      "menyam": 1391,
      "pengar": 1392,
      "bahwa": 1393,
      "waji": 1394,
      "hatinya": 1395,
      "peristi": 1396,
      "dus": 1397,
      "bia": 1398,
      "tajam": 1399,
      "beda": 1400,
      "gerakan": 1401,
      "12": 1402,
      "komp": 1403,
      "sut": 1404,
      "permainan": 1405,
      "penu": 1406,
      "gigi": 1407,
      "minta": 1408,
      "sinar": 1409,
      "paling": 1410,
      "berse": 1411,
      "perubahan": 1412,
      "meli": 1413,
      "seluruh": 1414,
      "layar": 1415,
      "peristiwa": 1416,
      "dunia": 1417,
      "jem": 1418,
      "muri": 1419,
      "sering": 1420,
      "fungsi": 1421,
      "pr": 1422,
      "kedu": 1423,
      "pendek": 1424,
      "daraan": 1425,
      "hilang": 1426,
      "bambu": 1427,
      "donesia": 1428,
      "eter": 1429,
      "tut": 1430,
      "apabila": 1431,
      "mengerjakan": 1432,
      "senjata": 1433,
      "murid": 1434,
      "bers": 1435,
      "ela": 1436,
      "terang": 1437,
      "Indonesia": 1438,
      "fa": 1439,
      "kos": 1440,
      "kay": 1441,
      "anaknya": 1442,
      "kungan": 1443,
      "las": 1444,
      "angga": 1445,
      "sial": 1446,
      "jahat": 1447,
      "hampir": 1448,
      "pada": 1449,
      "rakyat": 1450,
      "lurus": 1451,
      "ograf": 1452,
      "15": 1453,
      "gor": 1454,
      "mar": 1455,
      "asal": 1456,
      "berdasarkan": 1457,
      "sawah": 1458,
      "duri": 1459,
      "asam": 1460,
      "tutup": 1461,
      "ular": 1462,
      "musuh": 1463,
      "langit": 1464,
      "lekas": 1465,
      "rom": 1466,
      "berusaha": 1467,
      "sesu": 1468,
      "mengur": 1469,
      "luas": 1470,
      "dinding": 1471,
      "mur": 1472,
      "nil": 1473,
      "tok": 1474,
      "uc": 1475,
      "tipis": 1476,
      "perlu": 1477,
      "takut": 1478,
      "upai": 1479,
      "(-": 1480,
      "dor": 1481,
      "berg": 1482,
      "memiliki": 1483,
      "istri": 1484,
      "jut": 1485,
      "mol": 1486,
      "sor": 1487,
      "pern": 1488,
      "pintu": 1489,
      "dekat": 1490,
      "eo": 1491,
      "ditan": 1492,
      "penuh": 1493,
      "terlalu": 1494,
      "menaruh": 1495,
      "menum": 1496,
      "menangkap": 1497,
      "askan": 1498,
      "tuh": 1499,
      "iksa": 1500,
      "hubung": 1501,
      "daunnya": 1502,
      "berasal": 1503,
      "dari": 1504,
      "zim": 1505,
      "biji": 1506,
      "bintang": 1507,
      "ceng": 1508,
      "matan": 1509,
      "berke": 1510,
      "perca": 1511,
      "utang": 1512,
      "tambah": 1513,
      "menyerupai": 1514,
      "cana": 1515,
      "pesawat": 1516,
      "golongan": 1517,
      "hewan": 1518,
      "tat": 1519,
      "kantor": 1520,
      "menget": 1521,
      "bik": 1522,
      "kera": 1523,
      "dagang": 1524,
      "Is": 1525,
      "lel": 1526,
      "tuan": 1527,
      "kehidupan": 1528,
      "ikasi": 1529,
      "melin": 1530,
      "kelih": 1531,
      "harta": 1532,
      "adalah": 1533,
      "kekuatan": 1534,
      "sah": 1535,
      "menol": 1536,
      "onom": 1537,
      "kereta": 1538,
      "kelapa": 1539,
      "kiri": 1540,
      "menyimpan": 1541,
      "gus": 1542,
      "kasih": 1543,
      "kotor": 1544,
      "enang": 1545,
      "kelihatan": 1546,
      "wang": 1547,
      "memin": 1548,
      "memben": 1549,
      "kaca": 1550,
      "pukul": 1551,
      "hiasan": 1552,
      "bok": 1553,
      "hitung": 1554,
      "dike": 1555,
      "ekor": 1556,
      "ayat": 1557,
      "lun": 1558,
      "ém": 1559,
      "membel": 1560,
      "senya": 1561,
      "gunung": 1562,
      "menunjukkan": 1563,
      "kh": 1564,
      "empat": 1565,
      "perse": 1566,
      "pener": 1567,
      "amanya": 1568,
      "jalankan": 1569,
      "/,": 1570,
      "adik": 1571,
      "cong": 1572,
      "ris": 1573,
      "mengal": 1574,
      "seni": 1575,
      "malu": 1576,
      "menang": 1577,
      "ingin": 1578,
      "bahaya": 1579,
      "teling": 1580,
      "manis": 1581,
      "sambil": 1582,
      "rusak": 1583,
      "jawab": 1584,
      "ip": 1585,
      "pokok": 1586,
      "vi": 1587,
      "til": 1588,
      "gag": 1589,
      "meri": 1590,
      "kendaraan": 1591,
      "osok": 1592,
      "kedudukan": 1593,
      "jer": 1594,
      "met": 1595,
      "gadis": 1596,
      "kemam": 1597,
      "buluh": 1598,
      "fak": 1599,
      "sas": 1600,
      "iman": 1601,
      "menerima": 1602,
      "diberikan": 1603,
      "mik": 1604,
      "run": 1605,
      "pert": 1606,
      "terbuka": 1607,
      "membang": 1608,
      "sesuai": 1609,
      "mung": 1610,
      "okan": 1611,
      "ator": 1612,
      "arus": 1613,
      "angat": 1614,
      "mencapai": 1615,
      "lambang": 1616,
      "berubah": 1617,
      "paham": 1618,
      "14": 1619,
      "mam": 1620,
      "num": 1621,
      "pot": 1622,
      "wal": 1623,
      "was": 1624,
      "putus": 1625,
      "pengu": 1626,
      "pemu": 1627,
      "cul": 1628,
      "utan": 1629,
      "mena": 1630,
      "emp": 1631,
      "berada": 1632,
      "giatan": 1633,
      "alami": 1634,
      "lingkungan": 1635,
      "kemudian": 1636,
      "lon": 1637,
      "sun": 1638,
      "saha": 1639,
      "asing": 1640,
      "kebi": 1641,
      "menghadap": 1642,
      "barkan": 1643,
      "anda": 1644,
      "berhasil": 1645,
      "bermain": 1646,
      "buahan": 1647,
      "kegiatan": 1648,
      "langsung": 1649,
      "mengadakan": 1650,
      "memasukkan": 1651,
      "berani": 1652,
      "ana": 1653,
      "suku": 1654,
      "otak": 1655,
      "baikan": 1656,
      "kampung": 1657,
      "cinta": 1658,
      "kekuasaan": 1659,
      "saudara": 1660,
      "fobia": 1661,
      "senyawa": 1662,
      "mengun": 1663,
      "menimbulkan": 1664,
      "keterangan": 1665,
      "por": 1666,
      "sangg": 1667,
      "berken": 1668,
      "berkata": 1669,
      "tusan": 1670,
      "sebuah": 1671,
      "kutan": 1672,
      "kadang": 1673,
      "leher": 1674,
      "lagu": 1675,
      "angkal": 1676,
      "lampu": 1677,
      "13": 1678,
      "rin": 1679,
      "kuman": 1680,
      "tiruan": 1681,
      "fisi": 1682,
      "penduduk": 1683,
      "kaya": 1684,
      "ombang": 1685,
      "lih": 1686,
      "tebal": 1687,
      "bisa": 1688,
      "mé": 1689,
      "papan": 1690,
      "membe": 1691,
      "dada": 1692,
      "urat": 1693,
      "masing": 1694,
      "pasukan": 1695,
      "urusan": 1696,
      "telinga": 1697,
      "dom": 1698,
      "wu": 1699,
      "member": 1700,
      "bibir": 1701,
      "tingkah": 1702,
      "sembunyi": 1703,
      "masalah": 1704,
      "mengukur": 1705,
      "campuran": 1706,
      "nilai": 1707,
      "kemampuan": 1708,
      "alang": 1709,
      "semen": 1710,
      "tembak": 1711,
      "ampau": 1712,
      "hidr": 1713,
      "pega": 1714,
      "warn": 1715,
      "makin": 1716,
      "anjing": 1717,
      "penutup": 1718,
      "10": 1719,
      "Mat": 1720,
      "lahan": 1721,
      "angkut": 1722,
      "dipasang": 1723,
      "anggar": 1724,
      "tegak": 1725,
      "Islam": 1726,
      "diter": 1727,
      "aliran": 1728,
      "kesal": 1729,
      "dul": 1730,
      "lukan": 1731,
      "penyel": 1732,
      "pindah": 1733,
      "cairan": 1734,
      "jek": 1735,
      "seles": 1736,
      "dera": 1737,
      "susun": 1738,
      "tindakan": 1739,
      "memukul": 1740,
      "id": 1741,
      "kri": 1742,
      "menderita": 1743,
      "mengin": 1744,
      "menghasilkan": 1745,
      "sisi": 1746,
      "baga": 1747,
      "duh": 1748,
      "pati": 1749,
      "raga": 1750,
      "mencer": 1751,
      "sana": 1752,
      "susah": 1753,
      "radio": 1754,
      "bl": 1755,
      "meni": 1756,
      "berita": 1757,
      "tiada": 1758,
      "sebenar": 1759,
      "engg": 1760,
      "baran": 1761,
      "saat": 1762,
      "jadikan": 1763,
      "kop": 1764,
      "terletak": 1765,
      "adanya": 1766,
      "oda": 1767,
      "dijadikan": 1768,
      "suci": 1769,
      "gaja": 1770,
      "meren": 1771,
      "buran": 1772,
      "pengaruh": 1773,
      "kayunya": 1774,
      "nom": 1775,
      "sukar": 1776,
      "belajar": 1777,
      "selama": 1778,
      "luh": 1779,
      "asihat": 1780,
      "capkan": 1781,
      "sebenarnya": 1782,
      "karan": 1783,
      "magn": 1784,
      "buang": 1785,
      "padat": 1786,
      "sengaja": 1787,
      "tran": 1788,
      "turunan": 1789,
      "politik": 1790,
      "pegawai": 1791,
      "sé": 1792,
      "menyi": 1793,
      "keru": 1794,
      "tentara": 1795,
      "tepung": 1796,
      "masak": 1797,
      "gelombang": 1798,
      "guru": 1799,
      "laku": 1800,
      "pil": 1801,
      "pet": 1802,
      "yut": 1803,
      "ase": 1804,
      "susu": 1805,
      "layang": 1806,
      "penye": 1807,
      "tarik": 1808,
      "Geo": 1809,
      "Psi": 1810,
      "git": 1811,
      "rata": 1812,
      "uni": 1813,
      "mengir": 1814,
      "meram": 1815,
      "kembang": 1816,
      "timbul": 1817,
      "etakkan": 1818,
      "kasar": 1819,
      "elektr": 1820,
      "doh": 1821,
      "menjalankan": 1822,
      "alis": 1823,
      "ingatan": 1824,
      "gaya": 1825,
      "luka": 1826,
      "buru": 1827,
      "meja": 1828,
      "bukti": 1829,
      "polisi": 1830,
      "menentukan": 1831,
      "upacara": 1832,
      "gai": 1833,
      "nap": 1834,
      "patan": 1835,
      "menung": 1836,
      "berku": 1837,
      "bersel": 1838,
      "berdiri": 1839,
      "termasuk": 1840,
      "nyany": 1841,
      "memperoleh": 1842,
      "lapisan": 1843,
      "tanggung": 1844,
      "ges": 1845,
      "pangg": 1846,
      "budi": 1847,
      "pertun": 1848,
      "perkumpulan": 1849,
      "pih": 1850,
      "jarak": 1851,
      "cik": 1852,
      "fot": 1853,
      "po": 1854,
      "bertem": 1855,
      "sebagai": 1856,
      "terse": 1857,
      "mempel": 1858,
      "kawan": 1859,
      "atus": 1860,
      "garam": 1861,
      "bersihkan": 1862,
      "desa": 1863,
      "nik": 1864,
      "ton": 1865,
      "berasa": 1866,
      "sikap": 1867,
      "olok": 1868,
      "semak": 1869,
      "naf": 1870,
      "ayun": 1871,
      "dagangan": 1872,
      "membayar": 1873,
      "nasib": 1874,
      "untungan": 1875,
      "aksanakan": 1876,
      "bermacam": 1877,
      "pandangan": 1878,
      "pemberi": 1879,
      "kulitnya": 1880,
      "disebabkan": 1881,
      "boh": 1882,
      "jala": 1883,
      "té": 1884,
      "ani": 1885,
      "siapa": 1886,
      "kue": 1887,
      "rotan": 1888,
      "lidah": 1889,
      "cukup": 1890,
      "pikir": 1891,
      "mengetahu": 1892,
      "berkenaan": 1893,
      "agi": 1894,
      "etik": 1895,
      "ekul": 1896,
      "sara": 1897,
      "menin": 1898,
      "diser": 1899,
      "dianggap": 1900,
      "amin": 1901,
      "jaan": 1902,
      "asia": 1903,
      "pelajaran": 1904,
      "menutup": 1905,
      "ontoh": 1906,
      "bara": 1907,
      "gat": 1908,
      "aka": 1909,
      "tuhan": 1910,
      "sudut": 1911,
      "inter": 1912,
      "tera": 1913,
      "daf": 1914,
      "biaya": 1915,
      "ikatan": 1916,
      "egah": 1917,
      "rumput": 1918,
      "diperoleh": 1919,
      "struk": 1920,
      "bekas": 1921,
      "film": 1922,
      "mengetahui": 1923,
      "awa": 1924,
      "lom": 1925,
      "diu": 1926,
      "kebu": 1927,
      "baan": 1928,
      "putar": 1929,
      "pemain": 1930,
      "tekanan": 1931,
      "pisau": 1932,
      "sumber": 1933,
      "Bot": 1934,
      "get": 1935,
      "je": 1936,
      "menahan": 1937,
      "mengatur": 1938,
      "pembicara": 1939,
      "seru": 1940,
      "jiwa": 1941,
      "gelap": 1942,
      "produk": 1943,
      "minuman": 1944,
      "nasihat": 1945,
      "oksi": 1946,
      "tawar": 1947,
      "pertama": 1948,
      "aba": 1949,
      "jasa": 1950,
      "pangkat": 1951,
      "dit": 1952,
      "amkan": 1953,
      "seper": 1954,
      "sepe": 1955,
      "kuti": 1956,
      "pengi": 1957,
      "eksi": 1958,
      "hidung": 1959,
      "janji": 1960,
      "pemerintahan": 1961,
      "ikut": 1962,
      "pri": 1963,
      "rasi": 1964,
      "mengum": 1965,
      "mengangkat": 1966,
      "karangan": 1967,
      "mendatang": 1968,
      "daran": 1969,
      "katan": 1970,
      "sat": 1971,
      "bersang": 1972,
      "siri": 1973,
      "membentuk": 1974,
      "membersihkan": 1975,
      "isah": 1976,
      "tanya": 1977,
      "melu": 1978,
      "ulis": 1979,
      "ombong": 1980,
      "banding": 1981,
      "banyaknya": 1982,
      "cip": 1983,
      "dengar": 1984,
      "bercampur": 1985,
      "pertem": 1986,
      "tukang": 1987,
      "usah": 1988,
      "iru": 1989,
      "teman": 1990,
      "mencu": 1991,
      "ajari": 1992,
      "mungkin": 1993,
      "pertunjukan": 1994,
      "jat": 1995,
      "rat": 1996,
      "rong": 1997,
      "dilan": 1998,
      "asai": 1999,
      "amatan": 2000,
      "perintah": 2001,
      "teratur": 2002,
      "itar": 2003,
      "jadian": 2004,
      "bungkus": 2005,
      "reaksi": 2006,
      "susunan": 2007,
      "jaringan": 2008,
      "basah": 2009,
      "napas": 2010,
      "idi": 2011,
      "mang": 2012,
      "vol": 2013,
      "enak": 2014,
      "aring": 2015,
      "didikan": 2016,
      "bertambah": 2017,
      "elok": 2018,
      "sej": 2019,
      "kuku": 2020,
      "jabatan": 2021,
      "kerbau": 2022,
      "semangat": 2023,
      "pecah": 2024,
      "dingin": 2025,
      "mor": 2026,
      "wenang": 2027,
      "suami": 2028,
      "pantai": 2029,
      "bangkan": 2030,
      "roda": 2031,
      "angkah": 2032,
      "burkan": 2033,
      "lantai": 2034,
      "ogen": 2035,
      "sosial": 2036,
      "membuka": 2037,
      "kira": 2038,
      "jelas": 2039,
      "kawin": 2040,
      "mendengar": 2041,
      "molekul": 2042,
      "kesalahan": 2043,
      "pemberian": 2044,
      "An": 2045,
      "hel": 2046,
      "lé": 2047,
      "lok": 2048,
      "pek": 2049,
      "era": 2050,
      "diba": 2051,
      "elak": 2052,
      "auan": 2053,
      "memegang": 2054,
      "isap": 2055,
      "ingat": 2056,
      "umur": 2057,
      "keris": 2058,
      "jud": 2059,
      "akuan": 2060,
      "pasir": 2061,
      "tindak": 2062,
      "berlaku": 2063,
      "memasang": 2064,
      "organisasi": 2065,
      "tulisan": 2066,
      "kaum": 2067,
      "tangkai": 2068,
      "Met": 2069,
      "rek": 2070,
      "ron": 2071,
      "usi": 2072,
      "éter": 2073,
      "menet": 2074,
      "dic": 2075,
      "diken": 2076,
      "alai": 2077,
      "menganggap": 2078,
      "kutu": 2079,
      "pendiri": 2080,
      "duga": 2081,
      "baris": 2082,
      "ometer": 2083,
      "lemah": 2084,
      "modal": 2085,
      "fi": 2086,
      "gum": 2087,
      "nen": 2088,
      "erat": 2089,
      "gajah": 2090,
      "pagi": 2091,
      "anggu": 2092,
      "tenang": 2093,
      "tepat": 2094,
      "capai": 2095,
      "kakas": 2096,
      "sepatu": 2097,
      "pinggang": 2098,
      "hitungan": 2099,
      "fon": 2100,
      "mayat": 2101,
      "dana": 2102,
      "pemimpin": 2103,
      "aria": 2104,
      "menca": 2105,
      "balas": 2106,
      "mula": 2107,
      "tamu": 2108,
      "hormat": 2109,
      "pusat": 2110,
      "milik": 2111,
      "motor": 2112,
      "ode": 2113,
      "berfungsi": 2114,
      "seben": 2115,
      "sepak": 2116,
      "suhu": 2117,
      "olog": 2118,
      "kelas": 2119,
      "peti": 2120,
      "resi": 2121,
      "yarat": 2122,
      "obek": 2123,
      "sepeda": 2124,
      "Ar": 2125,
      "cum": 2126,
      "etan": 2127,
      "iz": 2128,
      "ium": 2129,
      "sy": 2130,
      "tata": 2131,
      "anan": 2132,
      "meneg": 2133,
      "berbeda": 2134,
      "sebutan": 2135,
      "kesus": 2136,
      "kejadian": 2137,
      "rab": 2138,
      "gelang": 2139,
      "gembi": 2140,
      "gedung": 2141,
      "mikro": 2142,
      "kang": 2143,
      "lima": 2144,
      "peg": 2145,
      "aktif": 2146,
      "berker": 2147,
      "mengas": 2148,
      "mengam": 2149,
      "sisa": 2150,
      "urkan": 2151,
      "tukar": 2152,
      "meleng": 2153,
      "batin": 2154,
      "karet": 2155,
      "ihara": 2156,
      "tambahan": 2157,
      "dalamnya": 2158,
      "pangkal": 2159,
      "sedih": 2160,
      "perak": 2161,
      "kacau": 2162,
      "ula": 2163,
      "belang": 2164,
      "tele": 2165,
      "harum": 2166,
      "karang": 2167,
      "menyerang": 2168,
      "dengan": 2169,
      "melepas": 2170,
      "tahui": 2171,
      "gila": 2172,
      "wajiban": 2173,
      "onomi": 2174,
      "16": 2175,
      "nada": 2176,
      "patu": 2177,
      "menel": 2178,
      "alas": 2179,
      "berang": 2180,
      "sub": 2181,
      "memotong": 2182,
      "menyamp": 2183,
      "melawan": 2184,
      "meru": 2185,
      "patah": 2186,
      "hancur": 2187,
      "hukuman": 2188,
      "tangga": 2189,
      "membuang": 2190,
      "gembira": 2191,
      "abi": 2192,
      "getah": 2193,
      "lari": 2194,
      "posi": 2195,
      "menak": 2196,
      "ditem": 2197,
      "bersam": 2198,
      "sebagian": 2199,
      "apis": 2200,
      "perkakas": 2201,
      "terta": 2202,
      "panya": 2203,
      "sekarang": 2204,
      "berlari": 2205,
      "sayap": 2206,
      "rahasia": 2207,
      "Lay": 2208,
      "lau": 2209,
      "long": 2210,
      "yaitu": 2211,
      "keturunan": 2212,
      "perjalan": 2213,
      "induk": 2214,
      "teran": 2215,
      "menggem": 2216,
      "ajat": 2217,
      "makh": 2218,
      "pisang": 2219,
      "warnanya": 2220,
      "mempelajari": 2221,
      "sebentar": 2222,
      "lat": 2223,
      "yakan": 2224,
      "busuk": 2225,
      "sebab": 2226,
      "kesel": 2227,
      "onan": 2228,
      "belas": 2229,
      "bantah": 2230,
      "bintik": 2231,
      "lahir": 2232,
      "ramai": 2233,
      "rupanya": 2234,
      "organik": 2235,
      "cocok": 2236,
      "bayaran": 2237,
      "indahkan": 2238,
      "selesai": 2239,
      "daftar": 2240,
      "makhluk": 2241,
      "jol": 2242,
      "ena": 2243,
      "menamp": 2244,
      "diakan": 2245,
      "bum": 2246,
      "pendidikan": 2247,
      "gaji": 2248,
      "keliling": 2249,
      "kapan": 2250,
      "mengubah": 2251,
      "tunjuk": 2252,
      "pekerjaannya": 2253,
      "bersih": 2254,
      "menerus": 2255,
      "purna": 2256,
      "diketahui": 2257,
      "cet": 2258,
      "lul": 2259,
      "pkan": 2260,
      "rang": 2261,
      "aris": 2262,
      "apung": 2263,
      "perban": 2264,
      "mengo": 2265,
      "mengalami": 2266,
      "puluh": 2267,
      "imbang": 2268,
      "lekuk": 2269,
      "menco": 2270,
      "mandi": 2271,
      "sekitar": 2272,
      "meter": 2273,
      "makna": 2274,
      "bagus": 2275,
      "berkai": 2276,
      "rempah": 2277,
      "dau": 2278,
      "ec": 2279,
      "kong": 2280,
      "arat": 2281,
      "menangg": 2282,
      "diker": 2283,
      "tiup": 2284,
      "mengaw": 2285,
      "engah": 2286,
      "pengem": 2287,
      "raya": 2288,
      "gugus": 2289,
      "penyer": 2290,
      "timbun": 2291,
      "menghil": 2292,
      "membiarkan": 2293,
      "kebiasaan": 2294,
      "cit": 2295,
      "fat": 2296,
      "atap": 2297,
      "berhenti": 2298,
      "kandung": 2299,
      "butir": 2300,
      "segi": 2301,
      "inti": 2302,
      "tertutup": 2303,
      "peman": 2304,
      "antai": 2305,
      "talian": 2306,
      "ujungnya": 2307,
      "bodoh": 2308,
      "pernah": 2309,
      "pembicaraan": 2310,
      "perjalanan": 2311,
      "cangan": 2312,
      "dali": 2313,
      "mili": 2314,
      "nor": 2315,
      "ras": 2316,
      "rasanya": 2317,
      "tiv": 2318,
      "kekur": 2319,
      "kewajiban": 2320,
      "dahan": 2321,
      "mutu": 2322,
      "aranya": 2323,
      "alanya": 2324,
      "paksa": 2325,
      "pertandingan": 2326,
      "usahakan": 2327,
      "cun": 2328,
      "gram": 2329,
      "kasi": 2330,
      "ler": 2331,
      "rel": 2332,
      "takan": 2333,
      "peraturan": 2334,
      "menghar": 2335,
      "dulu": 2336,
      "melekat": 2337,
      "pengh": 2338,
      "belan": 2339,
      "lutut": 2340,
      "kecep": 2341,
      "derajat": 2342,
      "osfer": 2343,
      "jantung": 2344,
      "dipergunakan": 2345,
      "punggung": 2346,
      "cantik": 2347,
      "dirinya": 2348,
      "tanggal": 2349,
      "mendatangkan": 2350,
      "kok": 2351,
      "mut": 2352,
      "nan": 2353,
      "ret": 2354,
      "tap": 2355,
      "tom": 2356,
      "menulis": 2357,
      "berulang": 2358,
      "tuanya": 2359,
      "keben": 2360,
      "keuntungan": 2361,
      "perhiasan": 2362,
      "ikh": 2363,
      "melan": 2364,
      "keruan": 2365,
      "selisi": 2366,
      "gera": 2367,
      "gelar": 2368,
      "antar": 2369,
      "timbangan": 2370,
      "bukit": 2371,
      "berkil": 2372,
      "sopan": 2373,
      "bantuan": 2374,
      "meninggalkan": 2375,
      "lunak": 2376,
      "mengalir": 2377,
      "struktur": 2378,
      "kekurangan": 2379,
      "kecepatan": 2380,
      "Isl": 2381,
      "Kris": 2382,
      "ea": 2383,
      "sj": 2384,
      "top": 2385,
      "wil": 2386,
      "berbulu": 2387,
      "kepu": 2388,
      "mengikat": 2389,
      "menyus": 2390,
      "melem": 2391,
      "bangun": 2392,
      "muatan": 2393,
      "wajah": 2394,
      "maj": 2395,
      "lembut": 2396,
      "lambat": 2397,
      "bunuh": 2398,
      "saluran": 2399,
      "sulit": 2400,
      "doa": 2401,
      "wajib": 2402,
      "Jawa": 2403,
      "cir": 2404,
      "fit": 2405,
      "gon": 2406,
      "osa": 2407,
      "ring": 2408,
      "reg": 2409,
      "kejah": 2410,
      "mengurus": 2411,
      "membeli": 2412,
      "istr": 2413,
      "pulang": 2414,
      "ira": 2415,
      "saw": 2416,
      "ampas": 2417,
      "serangan": 2418,
      "sempurna": 2419,
      "kemar": 2420,
      "pipih": 2421,
      "pele": 2422,
      "kamus": 2423,
      "memandang": 2424,
      "sayur": 2425,
      "tembakau": 2426,
      "kejahatan": 2427,
      "19": 2428,
      "bakan": 2429,
      "cal": 2430,
      "rangk": 2431,
      "berganti": 2432,
      "elang": 2433,
      "tian": 2434,
      "barat": 2435,
      "pembayaran": 2436,
      "tenun": 2437,
      "darat": 2438,
      "pisah": 2439,
      "lengan": 2440,
      "mampu": 2441,
      "bersangkutan": 2442,
      "melepaskan": 2443,
      "eka": 2444,
      "mendi": 2445,
      "mende": 2446,
      "segan": 2447,
      "perasi": 2448,
      "pernyata": 2449,
      "terikat": 2450,
      "kawat": 2451,
      "pandang": 2452,
      "atih": 2453,
      "menggan": 2454,
      "alaman": 2455,
      "gunaan": 2456,
      "jantan": 2457,
      "obatan": 2458,
      "menghin": 2459,
      "membaca": 2460,
      "teguh": 2461,
      "menuju": 2462,
      "olahraga": 2463,
      "pentingan": 2464,
      "matanya": 2465,
      "sirih": 2466,
      "Ol": 2467,
      "bet": 2468,
      "sari": 2469,
      "wara": 2470,
      "ener": 2471,
      "berser": 2472,
      "setengah": 2473,
      "kesen": 2474,
      "ingkan": 2475,
      "kacang": 2476,
      "ola": 2477,
      "menyes": 2478,
      "melen": 2479,
      "hantu": 2480,
      "kre": 2481,
      "bilah": 2482,
      "pedang": 2483,
      "rupa": 2484,
      "menurun": 2485,
      "tongkat": 2486,
      "penganan": 2487,
      "ografi": 2488,
      "hubungkan": 2489,
      "faktor": 2490,
      "menghadapi": 2491,
      "nomor": 2492,
      "pertemuan": 2493,
      "Cina": 2494,
      "kari": 2495,
      "anjang": 2496,
      "dilihat": 2497,
      "dihasilkan": 2498,
      "asakan": 2499,
      "sepanjang": 2500,
      "sehari": 2501,
      "kepandai": 2502,
      "aput": 2503,
      "membantu": 2504,
      "biru": 2505,
      "musim": 2506,
      "serba": 2507,
      "anggang": 2508,
      "hatikan": 2509,
      "maju": 2510,
      "karya": 2511,
      "kamar": 2512,
      "katak": 2513,
      "antikan": 2514,
      "form": 2515,
      "menambah": 2516,
      "meminta": 2517,
      "membangkit": 2518,
      "gesa": 2519,
      "nafsu": 2520,
      "pernyataan": 2521,
      "Olr": 2522,
      "az": 2523,
      "rim": 2524,
      "berp": 2525,
      "bergantung": 2526,
      "kebaikan": 2527,
      "mengob": 2528,
      "melay": 2529,
      "tabung": 2530,
      "cerai": 2531,
      "carakan": 2532,
      "kawinan": 2533,
      "wujud": 2534,
      "idiki": 2535,
      "bot": 2536,
      "salat": 2537,
      "tombak": 2538,
      "zo": 2539,
      "alasan": 2540,
      "berbau": 2541,
      "perkawinan": 2542,
      "indung": 2543,
      "tern": 2544,
      "terke": 2545,
      "kulan": 2546,
      "meletakkan": 2547,
      "batik": 2548,
      "telapak": 2549,
      "bakteri": 2550,
      "kumpul": 2551,
      "cincin": 2552,
      "badannya": 2553,
      "memanjang": 2554,
      "kakinya": 2555,
      "tahanan": 2556,
      "hebat": 2557,
      "bayi": 2558,
      "menangis": 2559,
      "cung": 2560,
      "kha": 2561,
      "uap": 2562,
      "berder": 2563,
      "sejak": 2564,
      "inkan": 2565,
      "mengga": 2566,
      "memul": 2567,
      "menyan": 2568,
      "menying": 2569,
      "melaksanakan": 2570,
      "penger": 2571,
      "halaman": 2572,
      "tebu": 2573,
      "ganya": 2574,
      "kapur": 2575,
      "gulung": 2576,
      "lingkaran": 2577,
      "demi": 2578,
      "disebut": 2579,
      "bengkak": 2580,
      "meriam": 2581,
      "kesusahan": 2582,
      "kebenaran": 2583,
      "gak": 2584,
      "sén": 2585,
      "udang": 2586,
      "bercakap": 2587,
      "kepentingan": 2588,
      "intang": 2589,
      "indus": 2590,
      "menyuruh": 2591,
      "imp": 2592,
      "pemakai": 2593,
      "kele": 2594,
      "sembah": 2595,
      "dew": 2596,
      "amanan": 2597,
      "kopi": 2598,
      "nasional": 2599,
      "kakak": 2600,
      "menyusu": 2601,
      "tarian": 2602,
      "diterima": 2603,
      "sejarah": 2604,
      "nenek": 2605,
      "Nabi": 2606,
      "hatan": 2607,
      "kik": 2608,
      "ne": 2609,
      "menik": 2610,
      "emat": 2611,
      "asis": 2612,
      "tikel": 2613,
      "set": 2614,
      "keperca": 2615,
      "terken": 2616,
      "kuensi": 2617,
      "itkan": 2618,
      "bayang": 2619,
      "sajak": 2620,
      "begi": 2621,
      "menggosok": 2622,
      "mulia": 2623,
      "awal": 2624,
      "larut": 2625,
      "lumpur": 2626,
      "miskin": 2627,
      "bengkok": 2628,
      "sasaran": 2629,
      "elektron": 2630,
      "panggilan": 2631,
      "bertemu": 2632,
      "dikerjakan": 2633,
      "ch": 2634,
      "contoh": 2635,
      "fre": 2636,
      "kala": 2637,
      "lakukan": 2638,
      "usus": 2639,
      "bertugas": 2640,
      "tikus": 2641,
      "inf": 2642,
      "aung": 2643,
      "dra": 2644,
      "merus": 2645,
      "dewa": 2646,
      "harapan": 2647,
      "karbon": 2648,
      "tunggal": 2649,
      "kambing": 2650,
      "diperlukan": 2651,
      "simpan": 2652,
      "anyaman": 2653,
      "lukisan": 2654,
      "kesehatan": 2655,
      "menolong": 2656,
      "begitu": 2657,
      "cup": 2658,
      "data": 2659,
      "eja": 2660,
      "iba": 2661,
      "ov": 2662,
      "pos": 2663,
      "we": 2664,
      "bersen": 2665,
      "elan": 2666,
      "kuli": 2667,
      "oran": 2668,
      "baca": 2669,
      "ekatkan": 2670,
      "pula": 2671,
      "tanduk": 2672,
      "melam": 2673,
      "melanggar": 2674,
      "pembuatan": 2675,
      "ragam": 2676,
      "bangsawan": 2677,
      "lawanan": 2678,
      "tertawa": 2679,
      "majalah": 2680,
      "Sas": 2681,
      "dol": 2682,
      "fal": 2683,
      "lor": 2684,
      "ujian": 2685,
      "eran": 2686,
      "berde": 2687,
      "bertindak": 2688,
      "amah": 2689,
      "segera": 2690,
      "kepa": 2691,
      "mengul": 2692,
      "terbakar": 2693,
      "inginan": 2694,
      "engan": 2695,
      "meluk": 2696,
      "bencana": 2697,
      "pengel": 2698,
      "banj": 2699,
      "nyaring": 2700,
      "lipat": 2701,
      "kemas": 2702,
      "jikan": 2703,
      "besaran": 2704,
      "peluru": 2705,
      "petunjuk": 2706,
      "upah": 2707,
      "tambang": 2708,
      "gendang": 2709,
      "partikel": 2710,
      "lapangan": 2711,
      "kitab": 2712,
      "maupun": 2713,
      "resmi": 2714,
      "kosong": 2715,
      "menolak": 2716,
      "menghilangkan": 2717,
      "kepercayaan": 2718,
      "11": 2719,
      "Mus": 2720,
      "ciri": 2721,
      "ewa": 2722,
      "gin": 2723,
      "juru": 2724,
      "ringan": 2725,
      "zi": 2726,
      "dibawa": 2727,
      "berputar": 2728,
      "mengatakan": 2729,
      "jad": 2730,
      "utkan": 2731,
      "tembok": 2732,
      "sela": 2733,
      "senapan": 2734,
      "angkatan": 2735,
      "sempit": 2736,
      "lainnya": 2737,
      "lemak": 2738,
      "janjian": 2739,
      "genap": 2740,
      "batuan": 2741,
      "engkapi": 2742,
      "pengantin": 2743,
      "mengikuti": 2744,
      "ucapan": 2745,
      "produksi": 2746,
      "menyampaikan": 2747,
      "Huk": 2748,
      "ginya": 2749,
      "kalah": 2750,
      "rik": 2751,
      "sol": 2752,
      "ubung": 2753,
      "éh": 2754,
      "berla": 2755,
      "tika": 2756,
      "kebun": 2757,
      "perhati": 2758,
      "permata": 2759,
      "memel": 2760,
      "kucing": 2761,
      "gabungan": 2762,
      "menyerah": 2763,
      "bank": 2764,
      "serangga": 2765,
      "mencamp": 2766,
      "licin": 2767,
      "semula": 2768,
      "keny": 2769,
      "derhan": 2770,
      "sandi": 2771,
      "mengham": 2772,
      "pesta": 2773,
      "dayaan": 2774,
      "berkaitan": 2775,
      "Arab": 2776,
      "cus": 2777,
      "gok": 2778,
      "stan": 2779,
      "diku": 2780,
      "berharga": 2781,
      "berguna": 2782,
      "keker": 2783,
      "perminta": 2784,
      "mengar": 2785,
      "penjel": 2786,
      "ilih": 2787,
      "umat": 2788,
      "semuan": 2789,
      "baiki": 2790,
      "haji": 2791,
      "lembu": 2792,
      "lembaga": 2793,
      "jarum": 2794,
      "bunganya": 2795,
      "sampah": 2796,
      "engkau": 2797,
      "menyelidiki": 2798,
      "singkat": 2799,
      "larutan": 2800,
      "industri": 2801,
      "frekuensi": 2802,
      "semuanya": 2803,
      "ef": 2804,
      "esi": 2805,
      "sini": 2806,
      "enzim": 2807,
      "ditu": 2808,
      "ditentu": 2809,
      "bern": 2810,
      "elat": 2811,
      "memik": 2812,
      "tani": 2813,
      "sayang": 2814,
      "pember": 2815,
      "pembuluh": 2816,
      "wayang": 2817,
      "roh": 2818,
      "lupa": 2819,
      "lewat": 2820,
      "otot": 2821,
      "sema": 2822,
      "kemati": 2823,
      "pedu": 2824,
      "bakaran": 2825,
      "kartu": 2826,
      "hadi": 2827,
      "dikatakan": 2828,
      "pemuda": 2829,
      "wilayah": 2830,
      "keputusan": 2831,
      "kepandaian": 2832,
      "perhatian": 2833,
      "ditentukan": 2834,
      "20": 2835,
      "?;": 2836,
      "koh": 2837,
      "leg": 2838,
      "letak": 2839,
      "langkah": 2840,
      "pam": 2841,
      "diambil": 2842,
      "asap": 2843,
      "bergel": 2844,
      "indu": 2845,
      "mengusahakan": 2846,
      "araan": 2847,
      "pengalaman": 2848,
      "pembe": 2849,
      "kelen": 2850,
      "ragu": 2851,
      "racun": 2852,
      "hias": 2853,
      "airan": 2854,
      "betul": 2855,
      "kecelak": 2856,
      "kris": 2857,
      "dirikan": 2858,
      "cacat": 2859,
      "gelisah": 2860,
      "mengucapkan": 2861,
      "samping": 2862,
      "pulau": 2863,
      "gejala": 2864,
      "sahabat": 2865,
      "energi": 2866,
      "kecelakaan": 2867,
      "him": 2868,
      "jaran": 2869,
      "kaku": 2870,
      "khas": 2871,
      "lil": 2872,
      "muk": 2873,
      "non": 2874,
      "menjaga": 2875,
      "asli": 2876,
      "buta": 2877,
      "tipu": 2878,
      "keka": 2879,
      "kesatuan": 2880,
      "perjanjian": 2881,
      "menggi": 2882,
      "mengaj": 2883,
      "penderita": 2884,
      "penjahat": 2885,
      "eks": 2886,
      "ekonomi": 2887,
      "pukulan": 2888,
      "tana": 2889,
      "melun": 2890,
      "menggen": 2891,
      "tikar": 2892,
      "pasti": 2893,
      "tangkan": 2894,
      "rumahnya": 2895,
      "mengerti": 2896,
      "berkali": 2897,
      "dokter": 2898,
      "akhirnya": 2899,
      "hadapan": 2900,
      "dasi": 2901,
      "hina": 2902,
      "rokok": 2903,
      "sapi": 2904,
      "sombong": 2905,
      "tsb": 2906,
      "tina": 2907,
      "keinginan": 2908,
      "suhan": 2909,
      "perhitungan": 2910,
      "mengung": 2911,
      "terser": 2912,
      "kaan": 2913,
      "menyun": 2914,
      "dahkan": 2915,
      "pengganti": 2916,
      "kelah": 2917,
      "kelem": 2918,
      "bahagi": 2919,
      "spor": 2920,
      "dangkan": 2921,
      "mence": 2922,
      "tein": 2923,
      "cuci": 2924,
      "soal": 2925,
      "meski": 2926,
      "organisme": 2927,
      "dela": 2928,
      "aikkan": 2929,
      "hormatan": 2930,
      "disertai": 2931,
      "pendirian": 2932,
      "formasi": 2933,
      "sandiwara": 2934,
      "kematian": 2935,
      "Muh": 2936,
      "Tan": 2937,
      "dasan": 2938,
      "reng": 2939,
      "sya": 2940,
      "usul": 2941,
      "atik": 2942,
      "berun": 2943,
      "berlain": 2944,
      "berlubang": 2945,
      "keperlu": 2946,
      "intan": 2947,
      "terben": 2948,
      "terakhir": 2949,
      "imau": 2950,
      "melon": 2951,
      "bendera": 2952,
      "dapatan": 2953,
      "kelakuan": 2954,
      "patkan": 2955,
      "ainkan": 2956,
      "uhkan": 2957,
      "mengganggu": 2958,
      "tentangan": 2959,
      "pidat": 2960,
      "ayan": 2961,
      "diaan": 2962,
      "saksi": 2963,
      "anyi": 2964,
      "lihatkan": 2965,
      "rongga": 2966,
      "patut": 2967,
      "pidato": 2968,
      "..": 2969,
      "pl": 2970,
      "wis": 2971,
      "wakan": 2972,
      "berbicara": 2973,
      "sejenis": 2974,
      "ketidak": 2975,
      "keamanan": 2976,
      "mengarah": 2977,
      "kupu": 2978,
      "pagar": 2979,
      "penge": 2980,
      "bahu": 2981,
      "menggar": 2982,
      "menggam": 2983,
      "protein": 2984,
      "samaan": 2985,
      "dungi": 2986,
      "kuno": 2987,
      "menganjur": 2988,
      "berkas": 2989,
      "catatan": 2990,
      "sarung": 2991,
      "goyang": 2992,
      "iksaan": 2993,
      "runcing": 2994,
      "kebudayaan": 2995,
      "memikirkan": 2996,
      "acara": 2997,
      "lamanya": 2998,
      "miring": 2999,
      "nis": 3000,
      "son": 3001,
      "atm": 3002,
      "bere": 3003,
      "bertukar": 3004,
      "sebanyak": 3005,
      "kesuk": 3006,
      "perkem": 3007,
      "persaha": 3008,
      "siang": 3009,
      "terasa": 3010,
      "tercapai": 3011,
      "meme": 3012,
      "isahkan": 3013,
      "haluan": 3014,
      "serat": 3015,
      "anggil": 3016,
      "kencing": 3017,
      "mad": 3018,
      "geli": 3019,
      "gelas": 3020,
      "menyebut": 3021,
      "malas": 3022,
      "memasak": 3023,
      "lengkap": 3024,
      "hamba": 3025,
      "pencuri": 3026,
      "mengurangi": 3027,
      "sementara": 3028,
      "membangkitkan": 3029,
      "keperluan": 3030,
      "persahabatan": 3031,
      "bapak": 3032,
      "con": 3033,
      "jin": 3034,
      "jangk": 3035,
      "plas": 3036,
      "tapak": 3037,
      "wangi": 3038,
      "eral": 3039,
      "sebesar": 3040,
      "kesem": 3041,
      "apus": 3042,
      "perairan": 3043,
      "penun": 3044,
      "penum": 3045,
      "imbangan": 3046,
      "melom": 3047,
      "bangkit": 3048,
      "kursi": 3049,
      "memperhatikan": 3050,
      "demam": 3051,
      "berkelahi": 3052,
      "abuhan": 3053,
      "trans": 3054,
      "melengkung": 3055,
      "normal": 3056,
      "kasihan": 3057,
      "khawat": 3058,
      "permintaan": 3059,
      "Pem": 3060,
      "cuk": 3061,
      "damp": 3062,
      "gah": 3063,
      "hum": 3064,
      "jun": 3065,
      "jara": 3066,
      "jinya": 3067,
      "song": 3068,
      "tes": 3069,
      "vit": 3070,
      "yan": 3071,
      "menda": 3072,
      "bertu": 3073,
      "kes": 3074,
      "memak": 3075,
      "uraian": 3076,
      "puter": 3077,
      "etar": 3078,
      "merun": 3079,
      "ribut": 3080,
      "jualan": 3081,
      "dewan": 3082,
      "hidupnya": 3083,
      "rugi": 3084,
      "buhkan": 3085,
      "kunci": 3086,
      "guling": 3087,
      "abjad": 3088,
      "tradisi": 3089,
      "militer": 3090,
      "meskipun": 3091,
      "bob": 3092,
      "cangk": 3093,
      "carkan": 3094,
      "deg": 3095,
      "darkan": 3096,
      "syarat": 3097,
      "dipukul": 3098,
      "alitas": 3099,
      "beram": 3100,
      "berta": 3101,
      "berteng": 3102,
      "tia": 3103,
      "pere": 3104,
      "orong": 3105,
      "pena": 3106,
      "menyal": 3107,
      "benih": 3108,
      "merek": 3109,
      "temannya": 3110,
      "penggunaan": 3111,
      "kecewa": 3112,
      "liat": 3113,
      "tumpu": 3114,
      "bunyikan": 3115,
      "pundi": 3116,
      "harimau": 3117,
      "memperlihatkan": 3118,
      "balai": 3119,
      "wakil": 3120,
      "jendela": 3121,
      "tentuan": 3122,
      "terlampau": 3123,
      "epit": 3124,
      "lintas": 3125,
      "menanam": 3126,
      "khay": 3127,
      "banjir": 3128,
      "kesukaran": 3129,
      "100": 3130,
      "gau": 3131,
      "arak": 3132,
      "mentah": 3133,
      "dicampur": 3134,
      "alar": 3135,
      "berangkat": 3136,
      "berkembang": 3137,
      "berpikir": 3138,
      "seke": 3139,
      "seakan": 3140,
      "kek": 3141,
      "keta": 3142,
      "mengisap": 3143,
      "sip": 3144,
      "siap": 3145,
      "tertinggi": 3146,
      "memi": 3147,
      "kadar": 3148,
      "jagung": 3149,
      "etri": 3150,
      "dahi": 3151,
      "baring": 3152,
      "merang": 3153,
      "pembantu": 3154,
      "beluk": 3155,
      "batkan": 3156,
      "laba": 3157,
      "bungkan": 3158,
      "kecu": 3159,
      "serbuk": 3160,
      "tela": 3161,
      "sangkut": 3162,
      "lebihan": 3163,
      "urutan": 3164,
      "pulkan": 3165,
      "pemeriksaan": 3166,
      "pengadilan": 3167,
      "pinggir": 3168,
      "niat": 3169,
      "memeriksa": 3170,
      "tropis": 3171,
      "magnet": 3172,
      "mengirim": 3173,
      "berkuasa": 3174,
      "semakin": 3175,
      "penjelasan": 3176,
      "gap": 3177,
      "gasi": 3178,
      "mim": 3179,
      "rol": 3180,
      "visi": 3181,
      "dite": 3182,
      "peran": 3183,
      "indi": 3184,
      "tersen": 3185,
      "terbit": 3186,
      "terdengar": 3187,
      "mema": 3188,
      "itakan": 3189,
      "baja": 3190,
      "biar": 3191,
      "tanam": 3192,
      "esan": 3193,
      "ukakan": 3194,
      "pajak": 3195,
      "tadi": 3196,
      "ampang": 3197,
      "ampok": 3198,
      "seri": 3199,
      "teliti": 3200,
      "mani": 3201,
      "cabik": 3202,
      "sangka": 3203,
      "tumbuk": 3204,
      "hawa": 3205,
      "énsi": 3206,
      "tinju": 3207,
      "kuningan": 3208,
      "onton": 3209,
      "menekan": 3210,
      "brik": 3211,
      "sayuran": 3212,
      "goreng": 3213,
      "kotoran": 3214,
      "nyanyian": 3215,
      "foto": 3216,
      "bumbu": 3217,
      "kekayaan": 3218,
      "atmosfer": 3219,
      "18": 3220,
      "adi": 3221,
      "kp": 3222,
      "of": 3223,
      "ubi": 3224,
      "ahirkan": 3225,
      "dibi": 3226,
      "dikering": 3227,
      "dijual": 3228,
      "alur": 3229,
      "bersu": 3230,
      "sehat": 3231,
      "sederhan": 3232,
      "keh": 3233,
      "istik": 3234,
      "ungkan": 3235,
      "merem": 3236,
      "dapan": 3237,
      "iaga": 3238,
      "ladang": 3239,
      "anggaran": 3240,
      "mencegah": 3241,
      "lancar": 3242,
      "pelabuhan": 3243,
      "cacing": 3244,
      "pec": 3245,
      "pedagang": 3246,
      "massa": 3247,
      "mendek": 3248,
      "mengenakan": 3249,
      "lapis": 3250,
      "menempel": 3251,
      "umumnya": 3252,
      "komun": 3253,
      "menyimpang": 3254,
      "pertanian": 3255,
      "menyenangkan": 3256,
      "toko": 3257,
      "percaya": 3258,
      "melintang": 3259,
      "bohong": 3260,
      "Muham": 3261,
      "perkembangan": 3262,
      "dikeringkan": 3263,
      "sederhana": 3264,
      "bom": 3265,
      "hulu": 3266,
      "jong": 3267,
      "uhi": 3268,
      "arut": 3269,
      "menjual": 3270,
      "menaikkan": 3271,
      "ahat": 3272,
      "berkaki": 3273,
      "amuk": 3274,
      "ketentuan": 3275,
      "permul": 3276,
      "pertumbuhan": 3277,
      "membagi": 3278,
      "kusut": 3279,
      "penjaga": 3280,
      "pendapatan": 3281,
      "badi": 3282,
      "babi": 3283,
      "esaikan": 3284,
      "melahirkan": 3285,
      "pabrik": 3286,
      "dapur": 3287,
      "pembel": 3288,
      "jujur": 3289,
      "serupa": 3290,
      "kencang": 3291,
      "memperbaiki": 3292,
      "pasar": 3293,
      "timah": 3294,
      "jana": 3295,
      "gamelan": 3296,
      "éks": 3297,
      "menyelesaikan": 3298,
      "pura": 3299,
      "ibunya": 3300,
      "kritik": 3301,
      "menipu": 3302,
      "ologis": 3303,
      "belanja": 3304,
      "rangkaian": 3305,
      "dewasa": 3306,
      "berlainan": 3307,
      "Muhammad": 3308,
      "permulaan": 3309,
      "adu": 3310,
      "cetak": 3311,
      "fikasi": 3312,
      "ion": 3313,
      "operasi": 3314,
      "pimpin": 3315,
      "rapi": 3316,
      "entak": 3317,
      "menuk": 3318,
      "mender": 3319,
      "berkumpul": 3320,
      "perdu": 3321,
      "perlahan": 3322,
      "perdagangan": 3323,
      "perselisi": 3324,
      "menghal": 3325,
      "mengaku": 3326,
      "penel": 3327,
      "alisis": 3328,
      "ampai": 3329,
      "anggur": 3330,
      "mantra": 3331,
      "manfa": 3332,
      "buruh": 3333,
      "alamat": 3334,
      "puncak": 3335,
      "jangka": 3336,
      "rebus": 3337,
      "bundar": 3338,
      "keluarkan": 3339,
      "kondisi": 3340,
      "ranting": 3341,
      "menerangkan": 3342,
      "hakim": 3343,
      "cokelat": 3344,
      "corak": 3345,
      "giring": 3346,
      "meliputi": 3347,
      "pegangan": 3348,
      "botol": 3349,
      "asiswa": 3350,
      "kristal": 3351,
      "perselisihan": 3352,
      "Bel": 3353,
      "balan": 3354,
      "det": 3355,
      "ké": 3356,
      "nas": 3357,
      "ruk": 3358,
      "bercabang": 3359,
      "perun": 3360,
      "sit": 3361,
      "situ": 3362,
      "atuk": 3363,
      "menyangkut": 3364,
      "utara": 3365,
      "saf": 3366,
      "tembaga": 3367,
      "ataan": 3368,
      "belit": 3369,
      "bantal": 3370,
      "roti": 3371,
      "telep": 3372,
      "tumpuk": 3373,
      "gelam": 3374,
      "mewa": 3375,
      "memenu": 3376,
      "habl": 3377,
      "tangannya": 3378,
      "jaring": 3379,
      "opet": 3380,
      "paru": 3381,
      "partai": 3382,
      "tubuhnya": 3383,
      "tahankan": 3384,
      "mulutnya": 3385,
      "habisan": 3386,
      "indahan": 3387,
      "menentang": 3388,
      "korban": 3389,
      "pertanyaan": 3390,
      "helai": 3391,
      "izin": 3392,
      "menurunkan": 3393,
      "memenuhi": 3394,
      "aju": 3395,
      "fik": 3396,
      "ide": 3397,
      "osis": 3398,
      "rangka": 3399,
      "saran": 3400,
      "yong": 3401,
      "dim": 3402,
      "dimasak": 3403,
      "ditarik": 3404,
      "dikeluarkan": 3405,
      "tupi": 3406,
      "kanya": 3407,
      "bubu": 3408,
      "yap": 3409,
      "injak": 3410,
      "mengap": 3411,
      "menghubungkan": 3412,
      "siput": 3413,
      "membat": 3414,
      "penya": 3415,
      "isinya": 3416,
      "jabat": 3417,
      "ikian": 3418,
      "drama": 3419,
      "tempur": 3420,
      "tabi": 3421,
      "alih": 3422,
      "selaput": 3423,
      "mineral": 3424,
      "awang": 3425,
      "sumpah": 3426,
      "akarta": 3427,
      "ilihan": 3428,
      "komputer": 3429,
      "dorong": 3430,
      "saraf": 3431,
      "pribadi": 3432,
      "mengobati": 3433,
      "Kat": 3434,
      "cil": 3435,
      "gis": 3436,
      "jil": 3437,
      "net": 3438,
      "pai": 3439,
      "sai": 3440,
      "sanak": 3441,
      "enam": 3442,
      "mental": 3443,
      "berturut": 3444,
      "tih": 3445,
      "kesul": 3446,
      "kekasih": 3447,
      "memanggil": 3448,
      "istir": 3449,
      "onen": 3450,
      "eser": 3451,
      "kerap": 3452,
      "omo": 3453,
      "omagn": 3454,
      "kelam": 3455,
      "arikan": 3456,
      "rawa": 3457,
      "bungkuk": 3458,
      "tingkatan": 3459,
      "jid": 3460,
      "pasangan": 3461,
      "ogok": 3462,
      "balok": 3463,
      "berlapis": 3464,
      "akarnya": 3465,
      "menempuh": 3466,
      "radiasi": 3467,
      "kerajaan": 3468,
      "perbandingan": 3469,
      "istrinya": 3470,
      "ternak": 3471,
      "pemakaian": 3472,
      "terkenal": 3473,
      "kohol": 3474,
      "aja": 3475,
      "bap": 3476,
      "kotak": 3477,
      "let": 3478,
      "pon": 3479,
      "quran": 3480,
      "mendu": 3481,
      "diny": 3482,
      "dibakar": 3483,
      "alkohol": 3484,
      "berak": 3485,
      "perantara": 3486,
      "terhenti": 3487,
      "membunuh": 3488,
      "kuh": 3489,
      "ormati": 3490,
      "meling": 3491,
      "unggul": 3492,
      "padu": 3493,
      "alahkan": 3494,
      "maka": 3495,
      "gerakkan": 3496,
      "demikian": 3497,
      "teriak": 3498,
      "guruan": 3499,
      "elektrik": 3500,
      "potongan": 3501,
      "gaib": 3502,
      "seperti": 3503,
      "pimpinan": 3504,
      "Per": 3505,
      "Sen": 3506,
      "cis": 3507,
      "cut": 3508,
      "fin": 3509,
      "jeng": 3510,
      "kis": 3511,
      "rantai": 3512,
      "wati": 3513,
      "yam": 3514,
      "dibentuk": 3515,
      "berlangsung": 3516,
      "berpindah": 3517,
      "sutra": 3518,
      "perju": 3519,
      "menghi": 3520,
      "aul": 3521,
      "terbatas": 3522,
      "terlepas": 3523,
      "memang": 3524,
      "memisahkan": 3525,
      "pening": 3526,
      "dayung": 3527,
      "eki": 3528,
      "utar": 3529,
      "sadar": 3530,
      "arian": 3531,
      "hantar": 3532,
      "mencuri": 3533,
      "kemauan": 3534,
      "asana": 3535,
      "pelaksan": 3536,
      "warga": 3537,
      "diadakan": 3538,
      "kunjung": 3539,
      "tegang": 3540,
      "celana": 3541,
      "celaka": 3542,
      "memanjat": 3543,
      "cobaan": 3544,
      "mahasiswa": 3545,
      "menyentuh": 3546,
      "bedaan": 3547,
      "murah": 3548,
      "lelah": 3549,
      "sebagaimana": 3550,
      "telepon": 3551,
      "hablur": 3552,
      "25": 3553,
      "awak": 3554,
      "bé": 3555,
      "bata": 3556,
      "ew": 3557,
      "hutang": 3558,
      "jing": 3559,
      "jaman": 3560,
      "né": 3561,
      "ofobia": 3562,
      "sap": 3563,
      "val": 3564,
      "entang": 3565,
      "berte": 3566,
      "berlebih": 3567,
      "berbahaya": 3568,
      "tutan": 3569,
      "kantong": 3570,
      "sedap": 3571,
      "ketam": 3572,
      "terpisah": 3573,
      "kuasa": 3574,
      "istana": 3575,
      "danau": 3576,
      "menyul": 3577,
      "usakan": 3578,
      "asikan": 3579,
      "kerut": 3580,
      "keranjang": 3581,
      "pemben": 3582,
      "kelamin": 3583,
      "gereja": 3584,
      "trak": 3585,
      "ganda": 3586,
      "memperlakukan": 3587,
      "medan": 3588,
      "hadir": 3589,
      "kapas": 3590,
      "genting": 3591,
      "gemuk": 3592,
      "mainkan": 3593,
      "cela": 3594,
      "batangnya": 3595,
      "bongkar": 3596,
      "penganut": 3597,
      "sebelumnya": 3598,
      "tolak": 3599,
      "menggerakkan": 3600,
      "efek": 3601,
      "himpun": 3602,
      "melompat": 3603,
      "Belanda": 3604,
      "kesulitan": 3605,
      "30": 3606,
      "bri": 3607,
      "dot": 3608,
      "gén": 3609,
      "alisme": 3610,
      "bert": 3611,
      "berarti": 3612,
      "segenap": 3613,
      "pertahanan": 3614,
      "siku": 3615,
      "membalas": 3616,
      "daunan": 3617,
      "dakwa": 3618,
      "jajar": 3619,
      "esak": 3620,
      "eskan": 3621,
      "ungkup": 3622,
      "taan": 3623,
      "risi": 3624,
      "pembangunan": 3625,
      "selatan": 3626,
      "selamatan": 3627,
      "lazim": 3628,
      "angkas": 3629,
      "semes": 3630,
      "masakan": 3631,
      "oskop": 3632,
      "kamu": 3633,
      "waktunya": 3634,
      "rancangan": 3635,
      "dengaran": 3636,
      "terjadinya": 3637,
      "Alquran": 3638,
      "memerlukan": 3639,
      "komponen": 3640,
      "melindungi": 3641,
      "kedudukannya": 3642,
      "fisik": 3643,
      "penyeli": 3644,
      "menunggu": 3645,
      "posisi": 3646,
      "lulus": 3647,
      "semacam": 3648,
      "penumpang": 3649,
      "peneliti": 3650,
      "perundingan": 3651,
      "17": 3652,
      "Ero": 3653,
      "Far": 3654,
      "com": 3655,
      "fir": 3656,
      "gn": 3657,
      "meg": 3658,
      "psi": 3659,
      "ubah": 3660,
      "vir": 3661,
      "erasi": 3662,
      "ditim": 3663,
      "diran": 3664,
      "alisasi": 3665,
      "asas": 3666,
      "buhan": 3667,
      "untai": 3668,
      "sewa": 3669,
      "sejumlah": 3670,
      "sekelompok": 3671,
      "kehormatan": 3672,
      "perguruan": 3673,
      "mengindahkan": 3674,
      "aus": 3675,
      "tergel": 3676,
      "penam": 3677,
      "baunya": 3678,
      "dup": 3679,
      "duhan": 3680,
      "menyum": 3681,
      "keri": 3682,
      "ométer": 3683,
      "mukanya": 3684,
      "betina": 3685,
      "menggul": 3686,
      "lip": 3687,
      "liar": 3688,
      "kemer": 3689,
      "akutan": 3690,
      "adonan": 3691,
      "balut": 3692,
      "koyak": 3693,
      "kepalanya": 3694,
      "garakan": 3695,
      "ruas": 3696,
      "menguasai": 3697,
      "moder": 3698,
      "samar": 3699,
      "jahit": 3700,
      "laporan": 3701,
      "epang": 3702,
      "menusuk": 3703,
      "menjalar": 3704,
      "tujuh": 3705,
      "datangan": 3706,
      "mendapatkan": 3707,
      "balikan": 3708,
      "teknik": 3709,
      "muncul": 3710,
      "sastra": 3711,
      "bersambung": 3712,
      "menanggung": 3713,
      "tivitas": 3714,
      "menyusun": 3715,
      "ibadah": 3716,
      "menyerahkan": 3717,
      "khawatir": 3718,
      "Eropa": 3719,
      "Ek": 3720,
      "Jakarta": 3721,
      "aca": 3722,
      "gangg": 3723,
      "graf": 3724,
      "hy": 3725,
      "hir": 3726,
      "ialah": 3727,
      "katu": 3728,
      "mag": 3729,
      "aneh": 3730,
      "aru": 3731,
      "aras": 3732,
      "dibagi": 3733,
      "ditulis": 3734,
      "disusun": 3735,
      "direbus": 3736,
      "bersenang": 3737,
      "bertalian": 3738,
      "tinya": 3739,
      "sepuluh": 3740,
      "keu": 3741,
      "perm": 3742,
      "perlom": 3743,
      "sitas": 3744,
      "membakar": 3745,
      "bim": 3746,
      "eksp": 3747,
      "menyin": 3748,
      "esel": 3749,
      "enggarakan": 3750,
      "melum": 3751,
      "taf": 3752,
      "bangkai": 3753,
      "lebat": 3754,
      "sendi": 3755,
      "kuran": 3756,
      "agam": 3757,
      "lanjut": 3758,
      "pipa": 3759,
      "mempertahankan": 3760,
      "gunanya": 3761,
      "sesak": 3762,
      "awi": 3763,
      "jarang": 3764,
      "objek": 3765,
      "dinam": 3766,
      "pola": 3767,
      "celah": 3768,
      "malang": 3769,
      "leks": 3770,
      "hilangan": 3771,
      "membicarakan": 3772,
      "ketakutan": 3773,
      "tokoh": 3774,
      "metode": 3775,
      "gatal": 3776,
      "mengumpulkan": 3777,
      "nanah": 3778,
      "Kristen": 3779,
      "hadiah": 3780,
      "tabiat": 3781,
      "dinyatakan": 3782,
      "perlombaan": 3783,
      "basan": 3784,
      "bongan": 3785,
      "lung": 3786,
      "meta": 3787,
      "rok": 3788,
      "taman": 3789,
      "yun": 3790,
      "yuk": 3791,
      "ender": 3792,
      "atin": 3793,
      "menari": 3794,
      "dimasuk": 3795,
      "bertan": 3796,
      "tudung": 3797,
      "sewaktu": 3798,
      "inda": 3799,
      "mengangkut": 3800,
      "tersi": 3801,
      "penen": 3802,
      "ura": 3803,
      "bisul": 3804,
      "gading": 3805,
      "merintang": 3806,
      "omong": 3807,
      "pengen": 3808,
      "judi": 3809,
      "teori": 3810,
      "kental": 3811,
      "surut": 3812,
      "bulatan": 3813,
      "kumbang": 3814,
      "ruangan": 3815,
      "cakar": 3816,
      "tinta": 3817,
      "rencana": 3818,
      "tegangan": 3819,
      "menutupi": 3820,
      "disediakan": 3821,
      "sengsara": 3822,
      "meningkat": 3823,
      "kilat": 3824,
      "ditanam": 3825,
      "walau": 3826,
      "lihatan": 3827,
      "diucapkan": 3828,
      "bandingkan": 3829,
      "residen": 3830,
      "plastik": 3831,
      "penyelidikan": 3832,
      "basi": 3833,
      "gong": 3834,
      "gali": 3835,
      "may": 3836,
      "pir": 3837,
      "va": 3838,
      "yum": 3839,
      "menangan": 3840,
      "menteri": 3841,
      "mentasi": 3842,
      "dihan": 3843,
      "alnya": 3844,
      "berduri": 3845,
      "kekal": 3846,
      "sual": 3847,
      "mengor": 3848,
      "terbentuk": 3849,
      "memung": 3850,
      "inggu": 3851,
      "olong": 3852,
      "gikan": 3853,
      "ona": 3854,
      "menyir": 3855,
      "engkap": 3856,
      "ulat": 3857,
      "tawan": 3858,
      "pengurus": 3859,
      "penghubung": 3860,
      "selamat": 3861,
      "otro": 3862,
      "kecer": 3863,
      "mencip": 3864,
      "pelan": 3865,
      "bunyian": 3866,
      "besarnya": 3867,
      "bakul": 3868,
      "suram": 3869,
      "santan": 3870,
      "mendong": 3871,
      "pinang": 3872,
      "cakapan": 3873,
      "hendaki": 3874,
      "memuat": 3875,
      "bingung": 3876,
      "istimewa": 3877,
      "tolongan": 3878,
      "pria": 3879,
      "dibayar": 3880,
      "televisi": 3881,
      "hancurkan": 3882,
      "calon": 3883,
      "melukis": 3884,
      "khayal": 3885,
      "manfaat": 3886,
      "gangguan": 3887,
      "Asia": 3888,
      "esis": 3889,
      "fol": 3890,
      "jap": 3891,
      "mangga": 3892,
      "nit": 3893,
      "potong": 3894,
      "taran": 3895,
      "upan": 3896,
      "yal": 3897,
      "erintah": 3898,
      "angsur": 3899,
      "embun": 3900,
      "asy": 3901,
      "berkurang": 3902,
      "berperang": 3903,
      "berlawanan": 3904,
      "ais": 3905,
      "sebangsa": 3906,
      "suaikan": 3907,
      "perso": 3908,
      "peringatan": 3909,
      "pertalian": 3910,
      "percakapan": 3911,
      "terpaksa": 3912,
      "memban": 3913,
      "dadu": 3914,
      "gian": 3915,
      "menyisi": 3916,
      "irama": 3917,
      "kerak": 3918,
      "sabun": 3919,
      "padan": 3920,
      "tabil": 3921,
      "pembu": 3922,
      "pembawa": 3923,
      "belih": 3924,
      "juang": 3925,
      "angkai": 3926,
      "angkasa": 3927,
      "menggor": 3928,
      "tumpah": 3929,
      "pelay": 3930,
      "pelihara": 3931,
      "petani": 3932,
      "pejabat": 3933,
      "dungan": 3934,
      "cermin": 3935,
      "menyediakan": 3936,
      "tuntutan": 3937,
      "dilengkapi": 3938,
      "paruh": 3939,
      "menjelang": 3940,
      "maksudnya": 3941,
      "topi": 3942,
      "gurau": 3943,
      "muslihat": 3944,
      "menumbuk": 3945,
      "gagah": 3946,
      "sanggup": 3947,
      "jejak": 3948,
      "oksida": 3949,
      "mencuci": 3950,
      "wisata": 3951,
      "kesempatan": 3952,
      "bobot": 3953,
      "istirahat": 3954,
      "persoalan": 3955,
      "45": 3956,
      "baku": 3957,
      "ehan": 3958,
      "fos": 3959,
      "his": 3960,
      "nu": 3961,
      "nah": 3962,
      "st": 3963,
      "uji": 3964,
      "upaya": 3965,
      "yi": 3966,
      "anga": 3967,
      "meneng": 3968,
      "dium": 3969,
      "diisi": 3970,
      "ditinggal": 3971,
      "berair": 3972,
      "berkulit": 3973,
      "buaya": 3974,
      "setuju": 3975,
      "sekeliling": 3976,
      "peral": 3977,
      "perser": 3978,
      "perbedaan": 3979,
      "pertolongan": 3980,
      "informasi": 3981,
      "sikan": 3982,
      "sibuk": 3983,
      "teram": 3984,
      "terkena": 3985,
      "penyu": 3986,
      "penjara": 3987,
      "urah": 3988,
      "nyawa": 3989,
      "dum": 3990,
      "kabut": 3991,
      "olahan": 3992,
      "umbi": 3993,
      "pupuk": 3994,
      "pujian": 3995,
      "gawang": 3996,
      "ongkos": 3997,
      "payah": 3998,
      "penglihatan": 3999,
      "nyamuk": 4000,
      "tingkan": 4001,
      "mencat": 4002,
      "menggo": 4003,
      "tempatnya": 4004,
      "tesis": 4005,
      "pelajar": 4006,
      "deret": 4007,
      "keping": 4008,
      "gug": 4009,
      "sekalian": 4010,
      "bulunya": 4011,
      "model": 4012,
      "uruhan": 4013,
      "tindih": 4014,
      "menempatkan": 4015,
      "lenyap": 4016,
      "heran": 4017,
      "hentikan": 4018,
      "jalur": 4019,
      "jembatan": 4020,
      "ditandai": 4021,
      "fisika": 4022,
      "oksigen": 4023,
      "kutub": 4024,
      "ditemukan": 4025,
      "lauk": 4026,
      "keseluruhan": 4027,
      "mengajak": 4028,
      "mengarahkan": 4029,
      "kecuali": 4030,
      "pecahan": 4031,
      "tempurung": 4032,
      "40": 4033,
      "90": 4034,
      "Jepang": 4035,
      "Rom": 4036,
      "bala": 4037,
      "duran": 4038,
      "gakan": 4039,
      "galan": 4040,
      "hé": 4041,
      "lik": 4042,
      "maki": 4043,
      "oi": 4044,
      "oid": 4045,
      "pita": 4046,
      "paut": 4047,
      "sarang": 4048,
      "sobek": 4049,
      "teh": 4050,
      "vul": 4051,
      "atis": 4052,
      "menjawab": 4053,
      "dias": 4054,
      "berga": 4055,
      "bertingkah": 4056,
      "beroda": 4057,
      "bercerai": 4058,
      "bertentangan": 4059,
      "kanak": 4060,
      "tip": 4061,
      "seku": 4062,
      "kebe": 4063,
      "persamaan": 4064,
      "menges": 4065,
      "tergantung": 4066,
      "memakan": 4067,
      "memilih": 4068,
      "ilit": 4069,
      "urai": 4070,
      "itahu": 4071,
      "jaj": 4072,
      "bio": 4073,
      "giat": 4074,
      "putri": 4075,
      "kerang": 4076,
      "keram": 4077,
      "kerong": 4078,
      "bening": 4079,
      "uki": 4080,
      "mering": 4081,
      "sabar": 4082,
      "tembus": 4083,
      "pancang": 4084,
      "pengum": 4085,
      "pengobatan": 4086,
      "bahkan": 4087,
      "ampi": 4088,
      "lebah": 4089,
      "laju": 4090,
      "sendok": 4091,
      "beban": 4092,
      "semut": 4093,
      "kurus": 4094,
      "apaan": 4095,
      "madu": 4096,
      "karena": 4097,
      "derma": 4098,
      "jalannya": 4099,
      "suruh": 4100,
      "baling": 4101,
      "kaleng": 4102,
      "sungut": 4103,
      "taruh": 4104,
      "timur": 4105,
      "dilaksanakan": 4106,
      "bersikap": 4107,
      "menjel": 4108,
      "dosa": 4109,
      "lengkung": 4110,
      "tanggungan": 4111,
      "golong": 4112,
      "menembak": 4113,
      "lawannya": 4114,
      "India": 4115,
      "menawar": 4116,
      "kerugian": 4117,
      "nyanyi": 4118,
      "getaran": 4119,
      "volum": 4120,
      "Pemerintah": 4121,
      "pelaksanaan": 4122,
      "peralatan": 4123,
      "22": 4124,
      "50": 4125,
      "Dag": 4126,
      "Pol": 4127,
      "col": 4128,
      "dgn": 4129,
      "nih": 4130,
      "paku": 4131,
      "piring": 4132,
      "utuh": 4133,
      "menon": 4134,
      "disem": 4135,
      "diren": 4136,
      "beroleh": 4137,
      "berlayar": 4138,
      "tib": 4139,
      "tiar": 4140,
      "aib": 4141,
      "ait": 4142,
      "kehendak": 4143,
      "suaranya": 4144,
      "pertimbangan": 4145,
      "mengarang": 4146,
      "menghancurkan": 4147,
      "teras": 4148,
      "tergesa": 4149,
      "pene": 4150,
      "penjualan": 4151,
      "ila": 4152,
      "duka": 4153,
      "oni": 4154,
      "usahan": 4155,
      "irim": 4156,
      "melel": 4157,
      "okong": 4158,
      "meres": 4159,
      "hanyut": 4160,
      "seluk": 4161,
      "robek": 4162,
      "sentr": 4163,
      "likan": 4164,
      "lipatan": 4165,
      "sekat": 4166,
      "bakal": 4167,
      "mekan": 4168,
      "antang": 4169,
      "rez": 4170,
      "penyam": 4171,
      "penyus": 4172,
      "penyanyi": 4173,
      "cikan": 4174,
      "tenggelam": 4175,
      "daikan": 4176,
      "opang": 4177,
      "batuk": 4178,
      "cuaca": 4179,
      "gemar": 4180,
      "sumbu": 4181,
      "carpus": 4182,
      "mengeliling": 4183,
      "palang": 4184,
      "menjatuh": 4185,
      "catur": 4186,
      "damar": 4187,
      "menembus": 4188,
      "mengemukakan": 4189,
      "irip": 4190,
      "muntah": 4191,
      "menyambut": 4192,
      "menguraikan": 4193,
      "vidu": 4194,
      "domba": 4195,
      "menceritakan": 4196,
      "berkerut": 4197,
      "sembahyang": 4198,
      "penderitaan": 4199,
      "modern": 4200,
      "merintangi": 4201,
      "menjatuhkan": 4202,
      "Bali": 4203,
      "Barat": 4204,
      "Mil": 4205,
      "gé": 4206,
      "kinan": 4207,
      "pakan": 4208,
      "pasi": 4209,
      "pra": 4210,
      "tér": 4211,
      "wt": 4212,
      "wira": 4213,
      "ditambah": 4214,
      "berong": 4215,
      "berapi": 4216,
      "berdek": 4217,
      "kepada": 4218,
      "suasana": 4219,
      "perteng": 4220,
      "mengon": 4221,
      "tertulis": 4222,
      "membah": 4223,
      "memindahkan": 4224,
      "ilah": 4225,
      "puisi": 4226,
      "usan": 4227,
      "ungkapan": 4228,
      "okkan": 4229,
      "asiat": 4230,
      "kerusakan": 4231,
      "pembi": 4232,
      "alia": 4233,
      "amping": 4234,
      "selen": 4235,
      "batasan": 4236,
      "nyala": 4237,
      "beku": 4238,
      "serentak": 4239,
      "bilang": 4240,
      "nyiur": 4241,
      "masam": 4242,
      "ogén": 4243,
      "lema": 4244,
      "menguatkan": 4245,
      "siswa": 4246,
      "gemer": 4247,
      "berlum": 4248,
      "keluarganya": 4249,
      "sumur": 4250,
      "denyut": 4251,
      "melebi": 4252,
      "tuskan": 4253,
      "dahului": 4254,
      "tangkas": 4255,
      "adiknya": 4256,
      "emparkan": 4257,
      "memberitahu": 4258,
      "merambat": 4259,
      "merusakkan": 4260,
      "kepadanya": 4261,
      "syair": 4262,
      "menggambarkan": 4263,
      "bertengkar": 4264,
      "individu": 4265,
      "penelitian": 4266,
      "mengelilingi": 4267,
      "23": 4268,
      "curan": 4269,
      "edah": 4270,
      "far": 4271,
      "geng": 4272,
      "galah": 4273,
      "hara": 4274,
      "jo": 4275,
      "kot": 4276,
      "mala": 4277,
      "mirip": 4278,
      "nel": 4279,
      "plan": 4280,
      "uaran": 4281,
      "yit": 4282,
      "anu": 4283,
      "erta": 4284,
      "meniru": 4285,
      "diangkat": 4286,
      "alim": 4287,
      "bertingkat": 4288,
      "tuduhan": 4289,
      "tikan": 4290,
      "seimbang": 4291,
      "setia": 4292,
      "ketan": 4293,
      "kesa": 4294,
      "suam": 4295,
      "suaian": 4296,
      "perma": 4297,
      "inci": 4298,
      "incir": 4299,
      "mengik": 4300,
      "sidang": 4301,
      "terli": 4302,
      "tertahan": 4303,
      "kubur": 4304,
      "ilkan": 4305,
      "bawang": 4306,
      "dani": 4307,
      "olisi": 4308,
      "ump": 4309,
      "puji": 4310,
      "iklim": 4311,
      "melainkan": 4312,
      "ungu": 4313,
      "mera": 4314,
      "meran": 4315,
      "tembakan": 4316,
      "padang": 4317,
      "penghasil": 4318,
      "kelo": 4319,
      "spek": 4320,
      "wadah": 4321,
      "mengge": 4322,
      "sembuh": 4323,
      "kemari": 4324,
      "akuti": 4325,
      "krom": 4326,
      "huyung": 4327,
      "piah": 4328,
      "aluan": 4329,
      "ayu": 4330,
      "mempergunakan": 4331,
      "mabuk": 4332,
      "hasut": 4333,
      "sanya": 4334,
      "santun": 4335,
      "penyem": 4336,
      "cerdik": 4337,
      "janya": 4338,
      "diperca": 4339,
      "menyelam": 4340,
      "habiskan": 4341,
      "gambaran": 4342,
      "menimbang": 4343,
      "rambutnya": 4344,
      "lakon": 4345,
      "jawaban": 4346,
      "mundur": 4347,
      "silat": 4348,
      "menumpang": 4349,
      "positif": 4350,
      "menyusahkan": 4351,
      "menggantung": 4352,
      "kesenangan": 4353,
      "melayang": 4354,
      "pengeluaran": 4355,
      "memelihara": 4356,
      "kekerasan": 4357,
      "bahagia": 4358,
      "mengirimkan": 4359,
      "usahanya": 4360,
      "Swt": 4361,
      "beg": 4362,
      "bos": 4363,
      "caran": 4364,
      "deta": 4365,
      "mari": 4366,
      "prak": 4367,
      "sasi": 4368,
      "sangk": 4369,
      "watan": 4370,
      "wali": 4371,
      "yuh": 4372,
      "angkutan": 4373,
      "menular": 4374,
      "dial": 4375,
      "dipi": 4376,
      "alangan": 4377,
      "berko": 4378,
      "bercahaya": 4379,
      "berenang": 4380,
      "elas": 4381,
      "keber": 4382,
      "kesan": 4383,
      "kehilangan": 4384,
      "sutera": 4385,
      "mengat": 4386,
      "sila": 4387,
      "terhadap": 4388,
      "terlihat": 4389,
      "tersusun": 4390,
      "membelah": 4391,
      "kuali": 4392,
      "kura": 4393,
      "ordin": 4394,
      "daan": 4395,
      "pusing": 4396,
      "menyala": 4397,
      "melekatkan": 4398,
      "mereng": 4399,
      "payung": 4400,
      "pengas": 4401,
      "pemilik": 4402,
      "kelok": 4403,
      "bedil": 4404,
      "angguk": 4405,
      "angkis": 4406,
      "mencela": 4407,
      "harap": 4408,
      "kalung": 4409,
      "sekaligus": 4410,
      "galak": 4411,
      "mendesak": 4412,
      "lambung": 4413,
      "berukuran": 4414,
      "mengacau": 4415,
      "hendaklah": 4416,
      "dendam": 4417,
      "mengejar": 4418,
      "larangan": 4419,
      "hilir": 4420,
      "khususnya": 4421,
      "memerintah": 4422,
      "akibatkan": 4423,
      "mendengarkan": 4424,
      "ditanami": 4425,
      "ampaui": 4426,
      "kerusuhan": 4427,
      "tersebar": 4428,
      "abad": 4429,
      "mencabut": 4430,
      "mencoba": 4431,
      "daur": 4432,
      "lereng": 4433,
      "meluncur": 4434,
      "tradisional": 4435,
      "ajuan": 4436,
      "omagnetik": 4437,
      "perjuangan": 4438,
      "pembentukan": 4439,
      "dimasukkan": 4440,
      "mencatat": 4441,
      "menonjol": 4442,
      "memberitahukan": 4443,
      "36": 4444,
      "Bu": 4445,
      "Quran": 4446,
      "cari": 4447,
      "dén": 4448,
      "gran": 4449,
      "jul": 4450,
      "mén": 4451,
      "namanya": 4452,
      "petak": 4453,
      "tau": 4454,
      "yh": 4455,
      "ép": 4456,
      "digoreng": 4457,
      "berekor": 4458,
      "bertangkai": 4459,
      "elatan": 4460,
      "budak": 4461,
      "busan": 4462,
      "kedi": 4463,
      "kebakaran": 4464,
      "suri": 4465,
      "terh": 4466,
      "teren": 4467,
      "terper": 4468,
      "membas": 4469,
      "memimpin": 4470,
      "bijinya": 4471,
      "ekah": 4472,
      "menyil": 4473,
      "menyung": 4474,
      "merap": 4475,
      "pengukuran": 4476,
      "belahan": 4477,
      "kian": 4478,
      "sele": 4479,
      "serak": 4480,
      "anggung": 4481,
      "liang": 4482,
      "liku": 4483,
      "bilik": 4484,
      "cacar": 4485,
      "timbangkan": 4486,
      "rupiah": 4487,
      "durkan": 4488,
      "bayangan": 4489,
      "bitkan": 4490,
      "ferensi": 4491,
      "pengaruhi": 4492,
      "bersedia": 4493,
      "seluruhnya": 4494,
      "ucut": 4495,
      "kerabat": 4496,
      "kenyataan": 4497,
      "standar": 4498,
      "letaknya": 4499,
      "kelenjar": 4500,
      "naskah": 4501,
      "jajahan": 4502,
      "rezeki": 4503,
      "(--": 4504,
      "24": 4505,
      "28": 4506,
      "cm": 4507,
      "fase": 4508,
      "gosok": 4509,
      "lampau": 4510,
      "matang": 4511,
      "otan": 4512,
      "pangan": 4513,
      "sti": 4514,
      "skop": 4515,
      "tot": 4516,
      "tangkap": 4517,
      "yur": 4518,
      "enau": 4519,
      "disimpan": 4520,
      "emosi": 4521,
      "berkec": 4522,
      "berdaun": 4523,
      "bersembunyi": 4524,
      "bertanya": 4525,
      "tuhkan": 4526,
      "kancing": 4527,
      "setan": 4528,
      "sebaik": 4529,
      "keyak": 4530,
      "kekuning": 4531,
      "inasi": 4532,
      "mengha": 4533,
      "terlan": 4534,
      "membin": 4535,
      "dawan": 4536,
      "bihan": 4537,
      "menyeng": 4538,
      "melul": 4539,
      "benteng": 4540,
      "ombol": 4541,
      "pemakan": 4542,
      "pembesar": 4543,
      "pembagian": 4544,
      "kelip": 4545,
      "keliru": 4546,
      "atihan": 4547,
      "spe": 4548,
      "tingginya": 4549,
      "kret": 4550,
      "tenunan": 4551,
      "lancip": 4552,
      "cadangan": 4553,
      "gunting": 4554,
      "guncang": 4555,
      "deretan": 4556,
      "takik": 4557,
      "yangkan": 4558,
      "hasilnya": 4559,
      "kepal": 4560,
      "menghir": 4561,
      "jenisnya": 4562,
      "dinas": 4563,
      "damai": 4564,
      "desak": 4565,
      "istilah": 4566,
      "menimpa": 4567,
      "perutnya": 4568,
      "boros": 4569,
      "tolong": 4570,
      "ayahnya": 4571,
      "roman": 4572,
      "saham": 4573,
      "persetujuan": 4574,
      "jernih": 4575,
      "membangun": 4576,
      "rintangan": 4577,
      "dikenal": 4578,
      "cetakan": 4579,
      "dalikan": 4580,
      "karyawan": 4581,
      "lilin": 4582,
      "menganjurkan": 4583,
      "mimpi": 4584,
      "himpunan": 4585,
      "keuangan": 4586,
      "asyik": 4587,
      "80": 4588,
      "II": 4589,
      "curi": 4590,
      "fan": 4591,
      "hangat": 4592,
      "lalai": 4593,
      "nuk": 4594,
      "nanti": 4595,
      "saku": 4596,
      "ankan": 4597,
      "mendahului": 4598,
      "disa": 4599,
      "disel": 4600,
      "dihi": 4601,
      "asat": 4602,
      "bering": 4603,
      "beres": 4604,
      "berdaya": 4605,
      "tutur": 4606,
      "budaya": 4607,
      "aing": 4608,
      "ketinggi": 4609,
      "kedok": 4610,
      "pera": 4611,
      "perwira": 4612,
      "terima": 4613,
      "tersing": 4614,
      "tersembunyi": 4615,
      "terapung": 4616,
      "ora": 4617,
      "peni": 4618,
      "urangan": 4619,
      "isyarat": 4620,
      "itah": 4621,
      "bajak": 4622,
      "biola": 4623,
      "menyombong": 4624,
      "uskan": 4625,
      "impah": 4626,
      "melampaui": 4627,
      "sagu": 4628,
      "pengusaha": 4629,
      "pengarang": 4630,
      "pembungkus": 4631,
      "keluk": 4632,
      "ampilan": 4633,
      "selain": 4634,
      "anggah": 4635,
      "mencem": 4636,
      "tahil": 4637,
      "menggu": 4638,
      "liter": 4639,
      "kemaluan": 4640,
      "petugas": 4641,
      "ayakan": 4642,
      "kenaikan": 4643,
      "amana": 4644,
      "karung": 4645,
      "memen": 4646,
      "dukun": 4647,
      "ogram": 4648,
      "wakili": 4649,
      "isih": 4650,
      "muluk": 4651,
      "tengkuk": 4652,
      "tenggor": 4653,
      "bagaimana": 4654,
      "moyang": 4655,
      "saka": 4656,
      "menghitung": 4657,
      "tupai": 4658,
      "hendaknya": 4659,
      "bersim": 4660,
      "baur": 4661,
      "datar": 4662,
      "menuntut": 4663,
      "stru": 4664,
      "kait": 4665,
      "menyambung": 4666,
      "persediaan": 4667,
      "gagasan": 4668,
      "berselisih": 4669,
      "jasad": 4670,
      "ditangkap": 4671,
      "kesenian": 4672,
      "bacaan": 4673,
      "vitamin": 4674,
      "walaupun": 4675,
      "Ibu": 4676,
      "aduk": 4677,
      "basa": 4678,
      "gala": 4679,
      "ho": 4680,
      "ika": 4681,
      "kg": 4682,
      "khi": 4683,
      "lai": 4684,
      "nam": 4685,
      "noda": 4686,
      "pre": 4687,
      "sok": 4688,
      "sapaan": 4689,
      "udi": 4690,
      "anc": 4691,
      "anakan": 4692,
      "analisis": 4693,
      "erang": 4694,
      "menengah": 4695,
      "dihar": 4696,
      "dialah": 4697,
      "didirikan": 4698,
      "asin": 4699,
      "beren": 4700,
      "berki": 4701,
      "berger": 4702,
      "berant": 4703,
      "bertutup": 4704,
      "berbantah": 4705,
      "busur": 4706,
      "bubuk": 4707,
      "sudi": 4708,
      "subur": 4709,
      "pers": 4710,
      "inv": 4711,
      "menging": 4712,
      "mengag": 4713,
      "kupi": 4714,
      "penahan": 4715,
      "istis": 4716,
      "tidaknya": 4717,
      "biak": 4718,
      "ekstr": 4719,
      "puasa": 4720,
      "ongsong": 4721,
      "tempa": 4722,
      "ria": 4723,
      "panah": 4724,
      "penghabisan": 4725,
      "pengolahan": 4726,
      "bela": 4727,
      "roboh": 4728,
      "lemen": 4729,
      "menci": 4730,
      "kemajuan": 4731,
      "tentang": 4732,
      "pelu": 4733,
      "debu": 4734,
      "bait": 4735,
      "akiti": 4736,
      "mempering": 4737,
      "bakat": 4738,
      "karat": 4739,
      "osom": 4740,
      "dikal": 4741,
      "klor": 4742,
      "negatif": 4743,
      "keadaannya": 4744,
      "lembaran": 4745,
      "ramuan": 4746,
      "menyesuaikan": 4747,
      "rusuh": 4748,
      "tunas": 4749,
      "tunduk": 4750,
      "tunjukkan": 4751,
      "jungi": 4752,
      "mengajukan": 4753,
      "sedangkan": 4754,
      "pulasi": 4755,
      "ayaan": 4756,
      "mengejek": 4757,
      "malaria": 4758,
      "watak": 4759,
      "memutuskan": 4760,
      "keringat": 4761,
      "osisi": 4762,
      "beranian": 4763,
      "hamil": 4764,
      "kesedihan": 4765,
      "coreng": 4766,
      "kaidah": 4767,
      "limau": 4768,
      "itia": 4769,
      "iringi": 4770,
      "bergaul": 4771,
      "persegi": 4772,
      "warnai": 4773,
      "mangkuk": 4774,
      "menetapkan": 4775,
      "mengawasi": 4776,
      "kemarin": 4777,
      "memulai": 4778,
      "merusak": 4779,
      "terbenam": 4780,
      "komunikasi": 4781,
      "ditinggalkan": 4782,
      "ketinggian": 4783,
      "26": 4784,
      "75": 4785,
      "Hindu": 4786,
      "Maha": 4787,
      "emen": 4788,
      "eti": 4789,
      "fas": 4790,
      "ganggu": 4791,
      "igi": 4792,
      "km": 4793,
      "kongan": 4794,
      "lus": 4795,
      "les": 4796,
      "lir": 4797,
      "lot": 4798,
      "sten": 4799,
      "stat": 4800,
      "stabil": 4801,
      "van": 4802,
      "yo": 4803,
      "endapan": 4804,
      "dira": 4805,
      "dilem": 4806,
      "berum": 4807,
      "bermu": 4808,
      "bergaris": 4809,
      "berahi": 4810,
      "berbaring": 4811,
      "buny": 4812,
      "unda": 4813,
      "seolah": 4814,
      "sejajar": 4815,
      "keji": 4816,
      "keberanian": 4817,
      "peraw": 4818,
      "perhubungan": 4819,
      "perayaan": 4820,
      "mengak": 4821,
      "mengep": 4822,
      "tersem": 4823,
      "terbaik": 4824,
      "pencah": 4825,
      "baw": 4826,
      "duyun": 4827,
      "oli": 4828,
      "bih": 4829,
      "impit": 4830,
      "mela": 4831,
      "kero": 4832,
      "kerjanya": 4833,
      "ukir": 4834,
      "amaan": 4835,
      "pantas": 4836,
      "atikan": 4837,
      "atika": 4838,
      "spon": 4839,
      "selang": 4840,
      "radang": 4841,
      "bedakan": 4842,
      "mencelak": 4843,
      "tahi": 4844,
      "menggali": 4845,
      "mengganti": 4846,
      "kemah": 4847,
      "akup": 4848,
      "tumpuan": 4849,
      "tenteram": 4850,
      "ohor": 4851,
      "pelindung": 4852,
      "pedas": 4853,
      "barangbarang": 4854,
      "kapkan": 4855,
      "dukkan": 4856,
      "lemari": 4857,
      "cermat": 4858,
      "mendorong": 4859,
      "ompet": 4860,
      "cucu": 4861,
      "materi": 4862,
      "gempa": 4863,
      "dekah": 4864,
      "membujuk": 4865,
      "menyelenggarakan": 4866,
      "mengecap": 4867,
      "jurit": 4868,
      "pesan": 4869,
      "lekat": 4870,
      "curang": 4871,
      "kolam": 4872,
      "lensa": 4873,
      "pengaw": 4874,
      "mahkota": 4875,
      "misalnya": 4876,
      "acun": 4877,
      "kompleks": 4878,
      "rombongan": 4879,
      "sanggul": 4880,
      "menyiarkan": 4881,
      "panggung": 4882,
      "menindih": 4883,
      "cipta": 4884,
      "timbunan": 4885,
      "terkejut": 4886,
      "meloncat": 4887,
      "...": 4888,
      "peredaran": 4889,
      "dimiliki": 4890,
      "membatasi": 4891,
      "risiko": 4892,
      "nelayan": 4893,
      "terlibat": 4894,
      "99": 4895,
      "Tim": 4896,
      "aer": 4897,
      "ceh": 4898,
      "fér": 4899,
      "jas": 4900,
      "mum": 4901,
      "peker": 4902,
      "rén": 4903,
      "sasa": 4904,
      "téng": 4905,
      "vok": 4906,
      "atar": 4907,
      "akad": 4908,
      "aram": 4909,
      "disam": 4910,
      "dilepas": 4911,
      "bersem": 4912,
      "berbunga": 4913,
      "bertelur": 4914,
      "bernapas": 4915,
      "berteriak": 4916,
      "tulan": 4917,
      "kandang": 4918,
      "ketu": 4919,
      "menghabiskan": 4920,
      "mengakibatkan": 4921,
      "silang": 4922,
      "tersangkut": 4923,
      "membantah": 4924,
      "membungkuk": 4925,
      "memutar": 4926,
      "kutuan": 4927,
      "pendeta": 4928,
      "urun": 4929,
      "kabin": 4930,
      "gadai": 4931,
      "okrasi": 4932,
      "ulangan": 4933,
      "dahul": 4934,
      "kerat": 4935,
      "merata": 4936,
      "panitia": 4937,
      "pembuat": 4938,
      "kiasan": 4939,
      "wayat": 4940,
      "rajin": 4941,
      "layak": 4942,
      "kecak": 4943,
      "telan": 4944,
      "mencel": 4945,
      "tep": 4946,
      "pipi": 4947,
      "petik": 4948,
      "gergaji": 4949,
      "haru": 4950,
      "mewakili": 4951,
      "arahnya": 4952,
      "dikirim": 4953,
      "antau": 4954,
      "diletakkan": 4955,
      "sampan": 4956,
      "periode": 4957,
      "konsep": 4958,
      "mengantuk": 4959,
      "menghapus": 4960,
      "menghormati": 4961,
      "dalaman": 4962,
      "éksi": 4963,
      "cinkan": 4964,
      "mengadu": 4965,
      "lapang": 4966,
      "tujui": 4967,
      "sakitan": 4968,
      "malai": 4969,
      "anyam": 4970,
      "tosa": 4971,
      "mengembalikan": 4972,
      "korup": 4973,
      "menyembunyikan": 4974,
      "mahal": 4975,
      "cendawan": 4976,
      "rindu": 4977,
      "doman": 4978,
      "nikah": 4979,
      "pengikut": 4980,
      "volusi": 4981,
      "dicetak": 4982,
      "cuma": 4983,
      "regu": 4984,
      "mendidih": 4985,
      "karib": 4986,
      "kikir": 4987,
      "menggaruk": 4988,
      "katung": 4989,
      "volume": 4990,
      "prajurit": 4991,
      "melebihi": 4992,
      "Tek": 4993,
      "adil": 4994,
      "fen": 4995,
      "ging": 4996,
      "hom": 4997,
      "jik": 4998,
      "los": 4999,
      "nakal": 5000,
      "paran": 5001,
      "stasi": 5002,
      "tém": 5003,
      "ui": 5004,
      "arik": 5005,
      "mendirikan": 5006,
      "diikat": 5007,
      "dimulai": 5008,
      "astr": 5009,
      "berai": 5010,
      "berhati": 5011,
      "berseng": 5012,
      "bersinar": 5013,
      "berayun": 5014,
      "berlebihan": 5015,
      "aih": 5016,
      "segar": 5017,
      "sewenang": 5018,
      "keke": 5019,
      "ketua": 5020,
      "keindahan": 5021,
      "persatuan": 5022,
      "perampok": 5023,
      "menguntung": 5024,
      "menghendaki": 5025,
      "sium": 5026,
      "membar": 5027,
      "penem": 5028,
      "pendu": 5029,
      "penyang": 5030,
      "pengir": 5031,
      "gih": 5032,
      "ekonom": 5033,
      "gagal": 5034,
      "menyur": 5035,
      "menyuk": 5036,
      "melang": 5037,
      "melarikan": 5038,
      "unggu": 5039,
      "kerik": 5040,
      "safat": 5041,
      "tempel": 5042,
      "pemas": 5043,
      "pembakaran": 5044,
      "belasan": 5045,
      "spir": 5046,
      "selubung": 5047,
      "rawan": 5048,
      "becak": 5049,
      "teleg": 5050,
      "angkang": 5051,
      "menggantikan": 5052,
      "libur": 5053,
      "temen": 5054,
      "gelem": 5055,
      "deral": 5056,
      "turan": 5057,
      "isik": 5058,
      "cerek": 5059,
      "yarak": 5060,
      "mengusir": 5061,
      "panjangnya": 5062,
      "cea": 5063,
      "paras": 5064,
      "lapik": 5065,
      "cantum": 5066,
      "disku": 5067,
      "kakek": 5068,
      "bingkai": 5069,
      "bocor": 5070,
      "delapan": 5071,
      "menimbun": 5072,
      "keseimbangan": 5073,
      "giling": 5074,
      "koran": 5075,
      "berkeluk": 5076,
      "dipotong": 5077,
      "menampung": 5078,
      "melicinkan": 5079,
      "dorongan": 5080,
      "juta": 5081,
      "membenarkan": 5082,
      "persekutuan": 5083,
      "inginkan": 5084,
      "hidrogen": 5085,
      "selesaikan": 5086,
      "menginjak": 5087,
      "pilih": 5088,
      "elektromagnetik": 5089,
      "kebutuhan": 5090,
      "dikenakan": 5091,
      "pendiriannya": 5092,
      "rasul": 5093,
      "mengharapkan": 5094,
      "kelebihan": 5095,
      "menghambat": 5096,
      "kelahiran": 5097,
      "mendadak": 5098,
      "mengakui": 5099,
      "situasi": 5100,
      "metabol": 5101,
      "Romawi": 5102,
      "berongga": 5103,
      "keyakinan": 5104,
      "29": 5105,
      "35": 5106,
      "85": 5107,
      "Me": 5108,
      "Mel": 5109,
      "Mekah": 5110,
      "Zo": 5111,
      "adak": 5112,
      "bem": 5113,
      "cemas": 5114,
      "fri": 5115,
      "flu": 5116,
      "geg": 5117,
      "hemat": 5118,
      "junya": 5119,
      "lalat": 5120,
      "no": 5121,
      "ner": 5122,
      "nologi": 5123,
      "nov": 5124,
      "puran": 5125,
      "rit": 5126,
      "rangkap": 5127,
      "éro": 5128,
      "atori": 5129,
      "arangan": 5130,
      "dimen": 5131,
      "diatur": 5132,
      "dijalankan": 5133,
      "aliman": 5134,
      "bermata": 5135,
      "bermotor": 5136,
      "undu": 5137,
      "keagama": 5138,
      "kebesaran": 5139,
      "perkelah": 5140,
      "percobaan": 5141,
      "mengajar": 5142,
      "mengasing": 5143,
      "menghentikan": 5144,
      "ters": 5145,
      "terburu": 5146,
      "terkandung": 5147,
      "terjun": 5148,
      "memus": 5149,
      "penet": 5150,
      "ilmi": 5151,
      "urut": 5152,
      "daki": 5153,
      "olek": 5154,
      "pusaka": 5155,
      "menyatu": 5156,
      "melemparkan": 5157,
      "ulur": 5158,
      "dlm": 5159,
      "kerucut": 5160,
      "merin": 5161,
      "merengg": 5162,
      "merasai": 5163,
      "ribu": 5164,
      "riwayat": 5165,
      "pengin": 5166,
      "pengukur": 5167,
      "muat": 5168,
      "kisi": 5169,
      "selu": 5170,
      "selim": 5171,
      "radikal": 5172,
      "lucu": 5173,
      "hiburan": 5174,
      "labu": 5175,
      "halang": 5176,
      "seribu": 5177,
      "kemung": 5178,
      "kurung": 5179,
      "buritan": 5180,
      "pedoman": 5181,
      "dekaan": 5182,
      "truk": 5183,
      "majem": 5184,
      "rebah": 5185,
      "redup": 5186,
      "turkan": 5187,
      "dingkan": 5188,
      "cium": 5189,
      "darai": 5190,
      "periuk": 5191,
      "cekung": 5192,
      "jaminan": 5193,
      "lapuk": 5194,
      "palsu": 5195,
      "memanaskan": 5196,
      "simpul": 5197,
      "000": 5198,
      "hampa": 5199,
      "kesebelasan": 5200,
      "filsafat": 5201,
      "berkeliling": 5202,
      "menyembuhkan": 5203,
      "élék": 5204,
      "mustahil": 5205,
      "menandai": 5206,
      "moncong": 5207,
      "kemudi": 5208,
      "balikkan": 5209,
      "cender": 5210,
      "bersaha": 5211,
      "durian": 5212,
      "cengang": 5213,
      "lonjong": 5214,
      "sunyi": 5215,
      "mengunjungi": 5216,
      "diubah": 5217,
      "Anda": 5218,
      "dibaca": 5219,
      "dugaan": 5220,
      "pemandangan": 5221,
      "ginjal": 5222,
      "pemberitah": 5223,
      "dibicarakan": 5224,
      "virus": 5225,
      "enderungan": 5226,
      "bertanding": 5227,
      "kerongkongan": 5228,
      "suaminya": 5229,
      "mencelakakan": 5230,
      "penyangga": 5231,
      "keagamaan": 5232,
      "perkelahian": 5233,
      "majemuk": 5234,
      "pemberitahuan": 5235,
      "37": 5236,
      "mara": 5237,
      "not": 5238,
      "oti": 5239,
      "paha": 5240,
      "pekat": 5241,
      "pilihan": 5242,
      "ral": 5243,
      "retak": 5244,
      "tén": 5245,
      "ubun": 5246,
      "yek": 5247,
      "yet": 5248,
      "dili": 5249,
      "diaj": 5250,
      "didasarkan": 5251,
      "berbu": 5252,
      "beranak": 5253,
      "bersatu": 5254,
      "bersan": 5255,
      "bertam": 5256,
      "bersal": 5257,
      "berdeng": 5258,
      "bermaksud": 5259,
      "bertenaga": 5260,
      "bertanggung": 5261,
      "beristirahat": 5262,
      "bernyanyi": 5263,
      "tiwa": 5264,
      "tiran": 5265,
      "unjuk": 5266,
      "sehabis": 5267,
      "setara": 5268,
      "kesu": 5269,
      "kesakitan": 5270,
      "persi": 5271,
      "perbaikan": 5272,
      "mengisi": 5273,
      "auk": 5274,
      "aukan": 5275,
      "siran": 5276,
      "terku": 5277,
      "membongkar": 5278,
      "orf": 5279,
      "penan": 5280,
      "iso": 5281,
      "kad": 5282,
      "biologi": 5283,
      "ikahan": 5284,
      "menyakiti": 5285,
      "ulah": 5286,
      "ulas": 5287,
      "keruh": 5288,
      "kerangka": 5289,
      "ukis": 5290,
      "merawat": 5291,
      "alihan": 5292,
      "nyeri": 5293,
      "jutan": 5294,
      "halnya": 5295,
      "betis": 5296,
      "seragam": 5297,
      "anggut": 5298,
      "angkak": 5299,
      "angkasan": 5300,
      "menceng": 5301,
      "lidi": 5302,
      "agen": 5303,
      "nabi": 5304,
      "geren": 5305,
      "trum": 5306,
      "warung": 5307,
      "memperkuat": 5308,
      "derang": 5309,
      "minat": 5310,
      "multi": 5311,
      "kalangan": 5312,
      "ceramah": 5313,
      "buntu": 5314,
      "mengupas": 5315,
      "pinjaman": 5316,
      "sakti": 5317,
      "obok": 5318,
      "menyerap": 5319,
      "tegas": 5320,
      "cangkan": 5321,
      "lapar": 5322,
      "engking": 5323,
      "tirai": 5324,
      "menunjuk": 5325,
      "hitaman": 5326,
      "remaja": 5327,
      "hambat": 5328,
      "kawasan": 5329,
      "acuan": 5330,
      "pron": 5331,
      "gores": 5332,
      "meminjam": 5333,
      "univer": 5334,
      "mengiris": 5335,
      "meramalkan": 5336,
      "sepakat": 5337,
      "keselamatan": 5338,
      "menampar": 5339,
      "mencocok": 5340,
      "mutlak": 5341,
      "selisih": 5342,
      "menyesal": 5343,
      "menyusui": 5344,
      "menikam": 5345,
      "menyebutkan": 5346,
      "merangsang": 5347,
      "rukun": 5348,
      "menggulung": 5349,
      "meningkatkan": 5350,
      "meleleh": 5351,
      "menggantungkan": 5352,
      "kecakapan": 5353,
      "menguntungkan": 5354,
      "mengasingkan": 5355,
      "ilmiah": 5356,
      "27": 5357,
      "fah": 5358,
      "gmen": 5359,
      "ij": 5360,
      "king": 5361,
      "langg": 5362,
      "mil": 5363,
      "pap": 5364,
      "pong": 5365,
      "palan": 5366,
      "rama": 5367,
      "sinya": 5368,
      "syat": 5369,
      "tasan": 5370,
      "utu": 5371,
      "andang": 5372,
      "angsa": 5373,
      "ngeri": 5374,
      "dipan": 5375,
      "didapat": 5376,
      "dituju": 5377,
      "digantung": 5378,
      "dicapai": 5379,
      "dimainkan": 5380,
      "disuruh": 5381,
      "empedu": 5382,
      "alap": 5383,
      "bergem": 5384,
      "bertali": 5385,
      "beruntung": 5386,
      "berhadapan": 5387,
      "bertumpu": 5388,
      "beracun": 5389,
      "bubur": 5390,
      "sesama": 5391,
      "sekumpulan": 5392,
      "kejam": 5393,
      "ino": 5394,
      "instru": 5395,
      "mengil": 5396,
      "terangkat": 5397,
      "tertangkap": 5398,
      "memah": 5399,
      "memainkan": 5400,
      "isar": 5401,
      "ataupun": 5402,
      "atulis": 5403,
      "bibit": 5404,
      "giginya": 5405,
      "onis": 5406,
      "impor": 5407,
      "melap": 5408,
      "unggas": 5409,
      "kere": 5410,
      "barisan": 5411,
      "meraj": 5412,
      "merampas": 5413,
      "riuh": 5414,
      "pemegang": 5415,
      "kelak": 5416,
      "bangga": 5417,
      "muti": 5418,
      "musi": 5419,
      "mujur": 5420,
      "ativ": 5421,
      "ampil": 5422,
      "raw": 5423,
      "ros": 5424,
      "seram": 5425,
      "serdadu": 5426,
      "manik": 5427,
      "mantap": 5428,
      "pela": 5429,
      "peluh": 5430,
      "cabai": 5431,
      "masjid": 5432,
      "gele": 5433,
      "mewarnai": 5434,
      "program": 5435,
      "binya": 5436,
      "perbuatannya": 5437,
      "penyul": 5438,
      "cerna": 5439,
      "ramah": 5440,
      "cakram": 5441,
      "daratan": 5442,
      "sambal": 5443,
      "mengenal": 5444,
      "mengendap": 5445,
      "pahit": 5446,
      "parut": 5447,
      "suling": 5448,
      "raksasa": 5449,
      "tisme": 5450,
      "memancarkan": 5451,
      "lingkar": 5452,
      "akhiri": 5453,
      "belaka": 5454,
      "cokan": 5455,
      "coba": 5456,
      "sepotong": 5457,
      "putaran": 5458,
      "ketangkasan": 5459,
      "sauh": 5460,
      "anjuran": 5461,
      "teks": 5462,
      "bersamaan": 5463,
      "perkataannya": 5464,
      "tarikan": 5465,
      "faedah": 5466,
      "marta": 5467,
      "murni": 5468,
      "pernikahan": 5469,
      "khatulis": 5470,
      "jeruk": 5471,
      "senyawaan": 5472,
      "penyeles": 5473,
      "meninju": 5474,
      "mengasah": 5475,
      "merugikan": 5476,
      "sekitarnya": 5477,
      "gugusan": 5478,
      "ikhtis": 5479,
      "berkilat": 5480,
      "wajahnya": 5481,
      "menghinakan": 5482,
      "melukai": 5483,
      "bernur": 5484,
      "berunding": 5485,
      "mendekati": 5486,
      "semesta": 5487,
      "menciptakan": 5488,
      "berdekatan": 5489,
      "olisis": 5490,
      "dipercaya": 5491,
      "berantakan": 5492,
      "Timur": 5493,
      "diskusi": 5494,
      "Zool": 5495,
      "khatulistiwa": 5496,
      "21": 5497,
      "bran": 5498,
      "cé": 5499,
      "coh": 5500,
      "gut": 5501,
      "gris": 5502,
      "grasi": 5503,
      "hama": 5504,
      "hot": 5505,
      "jepit": 5506,
      "jampi": 5507,
      "lamp": 5508,
      "mek": 5509,
      "maut": 5510,
      "paman": 5511,
      "sangan": 5512,
      "syak": 5513,
      "sér": 5514,
      "skala": 5515,
      "tél": 5516,
      "vis": 5517,
      "wesel": 5518,
      "yot": 5519,
      "zah": 5520,
      "arakan": 5521,
      "menela": 5522,
      "menangkis": 5523,
      "ahasa": 5524,
      "diak": 5525,
      "diik": 5526,
      "dica": 5527,
      "dimaksud": 5528,
      "ditiup": 5529,
      "digerakkan": 5530,
      "emi": 5531,
      "aling": 5532,
      "alir": 5533,
      "berj": 5534,
      "bersuka": 5535,
      "bersuara": 5536,
      "berakhir": 5537,
      "bersalah": 5538,
      "bergambar": 5539,
      "berbisa": 5540,
      "bersayap": 5541,
      "berlekuk": 5542,
      "berdoa": 5543,
      "beralih": 5544,
      "turi": 5545,
      "buas": 5546,
      "unting": 5547,
      "sepi": 5548,
      "sedekah": 5549,
      "keten": 5550,
      "kegem": 5551,
      "keahli": 5552,
      "kedengaran": 5553,
      "perangan": 5554,
      "mengol": 5555,
      "siaran": 5556,
      "terkecil": 5557,
      "terbawa": 5558,
      "tertarik": 5559,
      "kubu": 5560,
      "orok": 5561,
      "penari": 5562,
      "ilai": 5563,
      "babak": 5564,
      "umun": 5565,
      "ikir": 5566,
      "menyalah": 5567,
      "impan": 5568,
      "imia": 5569,
      "ungkil": 5570,
      "ulia": 5571,
      "dahsyat": 5572,
      "meratakan": 5573,
      "temu": 5574,
      "tempo": 5575,
      "temurun": 5576,
      "pandan": 5577,
      "pemec": 5578,
      "keling": 5579,
      "bele": 5580,
      "bana": 5581,
      "rogen": 5582,
      "senti": 5583,
      "dangkal": 5584,
      "kecantikan": 5585,
      "mencium": 5586,
      "tega": 5587,
      "hatiku": 5588,
      "gerik": 5589,
      "waris": 5590,
      "warisan": 5591,
      "ganas": 5592,
      "deras": 5593,
      "rumbai": 5594,
      "duksi": 5595,
      "ministr": 5596,
      "tunggang": 5597,
      "tangis": 5598,
      "sifatnya": 5599,
      "gugur": 5600,
      "lembar": 5601,
      "kamera": 5602,
      "timpa": 5603,
      "bunuhan": 5604,
      "rusuk": 5605,
      "menguap": 5606,
      "tunda": 5607,
      "tase": 5608,
      "opong": 5609,
      "sambung": 5610,
      "kunyit": 5611,
      "kontrak": 5612,
      "parang": 5613,
      "berkala": 5614,
      "canang": 5615,
      "engkang": 5616,
      "kiraan": 5617,
      "celaan": 5618,
      "doku": 5619,
      "meledak": 5620,
      "terigu": 5621,
      "bekal": 5622,
      "mengembara": 5623,
      "beliau": 5624,
      "dagingnya": 5625,
      "keterampilan": 5626,
      "goyah": 5627,
      "kail": 5628,
      "menyapu": 5629,
      "girang": 5630,
      "bergeser": 5631,
      "congkak": 5632,
      "mengalirkan": 5633,
      "membedakan": 5634,
      "pertempuran": 5635,
      "gumpal": 5636,
      "patung": 5637,
      "kemarahan": 5638,
      "rimba": 5639,
      "berpegang": 5640,
      "berderet": 5641,
      "elektronik": 5642,
      "infeksi": 5643,
      "kuliah": 5644,
      "menggigit": 5645,
      "condong": 5646,
      "penunjuk": 5647,
      "menghalangi": 5648,
      "kemerdekaan": 5649,
      "permohon": 5650,
      "perserikatan": 5651,
      "pasien": 5652,
      "selendang": 5653,
      "mengatasi": 5654,
      "anakanak": 5655,
      "kabinet": 5656,
      "martabat": 5657,
      "33": 5658,
      "47": 5659,
      "66": 5660,
      "Ameri": 5661,
      "Le": 5662,
      "Neg": 5663,
      "aci": 5664,
      "eor": 5665,
      "fe": 5666,
      "flor": 5667,
      "gra": 5668,
      "hon": 5669,
      "ibarat": 5670,
      "jai": 5671,
      "jarah": 5672,
      "latihan": 5673,
      "mét": 5674,
      "oga": 5675,
      "ofil": 5676,
      "ry": 5677,
      "uka": 5678,
      "vari": 5679,
      "vér": 5680,
      "anat": 5681,
      "andan": 5682,
      "ensis": 5683,
      "menuang": 5684,
      "menduga": 5685,
      "disu": 5686,
      "ditempat": 5687,
      "ditumbu": 5688,
      "didengar": 5689,
      "dibungkus": 5690,
      "berangan": 5691,
      "berkat": 5692,
      "bertiup": 5693,
      "berlipat": 5694,
      "tuli": 5695,
      "amu": 5696,
      "amakan": 5697,
      "kantung": 5698,
      "busi": 5699,
      "unungan": 5700,
      "ail": 5701,
      "sedu": 5702,
      "setempat": 5703,
      "sesungguh": 5704,
      "kehitam": 5705,
      "kedip": 5706,
      "kedatangan": 5707,
      "kesengsara": 5708,
      "pertuk": 5709,
      "persen": 5710,
      "perpindah": 5711,
      "mengayun": 5712,
      "mengalahkan": 5713,
      "sisir": 5714,
      "tertib": 5715,
      "memikat": 5716,
      "penonton": 5717,
      "penolong": 5718,
      "isahan": 5719,
      "ingkar": 5720,
      "itasi": 5721,
      "dulang": 5722,
      "biang": 5723,
      "pucuk": 5724,
      "menyeg": 5725,
      "iris": 5726,
      "dll": 5727,
      "keren": 5728,
      "meraba": 5729,
      "oma": 5730,
      "taw": 5731,
      "panji": 5732,
      "penghidupan": 5733,
      "kelabu": 5734,
      "bangi": 5735,
      "hani": 5736,
      "letusan": 5737,
      "nyen": 5738,
      "senon": 5739,
      "senyum": 5740,
      "airnya": 5741,
      "kecenderungan": 5742,
      "mencan": 5743,
      "mencek": 5744,
      "mencong": 5745,
      "tahap": 5746,
      "menggal": 5747,
      "landasan": 5748,
      "berikut": 5749,
      "wanya": 5750,
      "peperangan": 5751,
      "masyh": 5752,
      "gerombol": 5753,
      "trol": 5754,
      "punya": 5755,
      "kulasi": 5756,
      "ganjil": 5757,
      "gelag": 5758,
      "takkan": 5759,
      "kapit": 5760,
      "administr": 5761,
      "binasa": 5762,
      "makanannya": 5763,
      "penyimpan": 5764,
      "timun": 5765,
      "timbang": 5766,
      "menyepak": 5767,
      "awas": 5768,
      "darurat": 5769,
      "generasi": 5770,
      "dilalui": 5771,
      "sambungan": 5772,
      "matem": 5773,
      "pahlawan": 5774,
      "partemen": 5775,
      "sindiran": 5776,
      "sumbangan": 5777,
      "candu": 5778,
      "direk": 5779,
      "menjepit": 5780,
      "mestinya": 5781,
      "melewati": 5782,
      "golok": 5783,
      "menunaikan": 5784,
      "jumpa": 5785,
      "istiadat": 5786,
      "topeng": 5787,
      "lakunya": 5788,
      "lumat": 5789,
      "sarjana": 5790,
      "ketat": 5791,
      "rusa": 5792,
      "bebaskan": 5793,
      "prin": 5794,
      "membentangkan": 5795,
      "runtuh": 5796,
      "sanggupan": 5797,
      "petang": 5798,
      "pikirannya": 5799,
      "jejal": 5800,
      "katanya": 5801,
      "morf": 5802,
      "pegunungan": 5803,
      "kacauan": 5804,
      "longgar": 5805,
      "kandungan": 5806,
      "ikhtiar": 5807,
      "melempar": 5808,
      "ringkas": 5809,
      "kemarau": 5810,
      "pengertian": 5811,
      "memaksa": 5812,
      "teladan": 5813,
      "sapu": 5814,
      "melukiskan": 5815,
      "folia": 5816,
      "pengumpulan": 5817,
      "menawarkan": 5818,
      "ditambahkan": 5819,
      "planet": 5820,
      "menyelamatkan": 5821,
      "bawahan": 5822,
      "stasiun": 5823,
      "menyatukan": 5824,
      "permohonan": 5825,
      "Amerika": 5826,
      "ditumbuhi": 5827,
      "kesengsaraan": 5828,
      "perpindahan": 5829,
      "masyhur": 5830,
      "48": 5831,
      "70": 5832,
      "Afri": 5833,
      "Kaliman": 5834,
      "Nya": 5835,
      "Selatan": 5836,
      "adilan": 5837,
      "cakan": 5838,
      "catu": 5839,
      "céng": 5840,
      "dati": 5841,
      "ejaan": 5842,
      "fé": 5843,
      "iaran": 5844,
      "klu": 5845,
      "lit": 5846,
      "lasi": 5847,
      "lada": 5848,
      "niaga": 5849,
      "qu": 5850,
      "ratus": 5851,
      "stu": 5852,
      "ster": 5853,
      "salam": 5854,
      "tatif": 5855,
      "uti": 5856,
      "ucap": 5857,
      "andung": 5858,
      "aneka": 5859,
      "ereng": 5860,
      "atai": 5861,
      "akr": 5862,
      "akrab": 5863,
      "angnya": 5864,
      "angus": 5865,
      "meno": 5866,
      "didi": 5867,
      "diben": 5868,
      "diukur": 5869,
      "dibuka": 5870,
      "dipandang": 5871,
      "diselesaikan": 5872,
      "albu": 5873,
      "asuran": 5874,
      "berden": 5875,
      "berpakaian": 5876,
      "bertujuan": 5877,
      "berdagang": 5878,
      "bersusun": 5879,
      "tusuk": 5880,
      "yawar": 5881,
      "sean": 5882,
      "seia": 5883,
      "sepasang": 5884,
      "kesi": 5885,
      "keempat": 5886,
      "sutan": 5887,
      "perleng": 5888,
      "perkiraan": 5889,
      "ine": 5890,
      "ins": 5891,
      "mengatu": 5892,
      "mengek": 5893,
      "mengolah": 5894,
      "menghasut": 5895,
      "tero": 5896,
      "terbagi": 5897,
      "tertinggal": 5898,
      "terlambat": 5899,
      "memun": 5900,
      "membungkus": 5901,
      "memec": 5902,
      "kudis": 5903,
      "penat": 5904,
      "badak": 5905,
      "badai": 5906,
      "duki": 5907,
      "kabur": 5908,
      "pucat": 5909,
      "publ": 5910,
      "esa": 5911,
      "enggu": 5912,
      "uli": 5913,
      "keramat": 5914,
      "bendah": 5915,
      "merak": 5916,
      "pemel": 5917,
      "pemindahan": 5918,
      "pemilihan": 5919,
      "pembunuhan": 5920,
      "kelap": 5921,
      "bahak": 5922,
      "bandar": 5923,
      "wawan": 5924,
      "egaraan": 5925,
      "ludah": 5926,
      "hipot": 5927,
      "lafal": 5928,
      "juara": 5929,
      "senda": 5930,
      "bedak": 5931,
      "mencang": 5932,
      "mencor": 5933,
      "kemur": 5934,
      "tekan": 5935,
      "pian": 5936,
      "pewarna": 5937,
      "desus": 5938,
      "nadi": 5939,
      "harganya": 5940,
      "madat": 5941,
      "maaf": 5942,
      "apisi": 5943,
      "osin": 5944,
      "antas": 5945,
      "balasan": 5946,
      "wakilan": 5947,
      "sesat": 5948,
      "garuk": 5949,
      "lembek": 5950,
      "lembap": 5951,
      "jenderal": 5952,
      "pistol": 5953,
      "iranya": 5954,
      "gulai": 5955,
      "merebut": 5956,
      "terlarang": 5957,
      "talak": 5958,
      "talas": 5959,
      "canakan": 5960,
      "menjem": 5961,
      "polis": 5962,
      "memancar": 5963,
      "memasuki": 5964,
      "lengah": 5965,
      "mengembang": 5966,
      "gantian": 5967,
      "pingsan": 5968,
      "gurunya": 5969,
      "akibatnya": 5970,
      "tangkis": 5971,
      "melipat": 5972,
      "jemur": 5973,
      "pengujian": 5974,
      "magnetik": 5975,
      "penyesuaian": 5976,
      "meninjau": 5977,
      "pekarangan": 5978,
      "dicari": 5979,
      "mengamuk": 5980,
      "menakut": 5981,
      "lautan": 5982,
      "terantuk": 5983,
      "wujudkan": 5984,
      "bersentuhan": 5985,
      "stansi": 5986,
      "dikuasai": 5987,
      "spora": 5988,
      "sarana": 5989,
      "hyl": 5990,
      "diharapkan": 5991,
      "memperingati": 5992,
      "korupsi": 5993,
      "Melayu": 5994,
      "atorium": 5995,
      "mutiara": 5996,
      "sesungguhnya": 5997,
      "senonoh": 5998,
      "gerombolan": 5999,
      "matematika": 6000,
      "Kalimantan": 6001,
      "perlengkapan": 6002,
      "46": 6003,
      "79": 6004,
      "Am": 6005,
      "CH": 6006,
      "Contoh": 6007,
      "Dik": 6008,
      "Fil": 6009,
      "Ing": 6010,
      "Man": 6011,
      "Men": 6012,
      "adr": 6013,
      "dog": 6014,
      "gluk": 6015,
      "hai": 6016,
      "ida": 6017,
      "kasa": 6018,
      "mit": 6019,
      "megah": 6020,
      "nus": 6021,
      "parkan": 6022,
      "ramping": 6023,
      "talan": 6024,
      "ték": 6025,
      "vin": 6026,
      "wel": 6027,
      "yangan": 6028,
      "yok": 6029,
      "erai": 6030,
      "arai": 6031,
      "angkuh": 6032,
      "menopang": 6033,
      "dita": 6034,
      "dibeli": 6035,
      "ditembak": 6036,
      "dibuang": 6037,
      "ditumbuk": 6038,
      "dipelihara": 6039,
      "ember": 6040,
      "astra": 6041,
      "aspek": 6042,
      "bertempat": 6043,
      "berdasar": 6044,
      "bercek": 6045,
      "bersemangat": 6046,
      "bersuami": 6047,
      "berbintik": 6048,
      "tuah": 6049,
      "tusi": 6050,
      "elar": 6051,
      "sejuk": 6052,
      "ketah": 6053,
      "kedai": 6054,
      "kebahagi": 6055,
      "kekacauan": 6056,
      "peris": 6057,
      "perasa": 6058,
      "pertentangan": 6059,
      "peralihan": 6060,
      "pergantian": 6061,
      "inang": 6062,
      "mengali": 6063,
      "tergen": 6064,
      "ternyata": 6065,
      "membesar": 6066,
      "memetik": 6067,
      "kuan": 6068,
      "kuri": 6069,
      "penak": 6070,
      "penin": 6071,
      "ilat": 6072,
      "bayar": 6073,
      "bajunya": 6074,
      "duan": 6075,
      "duta": 6076,
      "kagum": 6077,
      "atul": 6078,
      "atuhan": 6079,
      "umbinya": 6080,
      "gigit": 6081,
      "onim": 6082,
      "ontak": 6083,
      "putra": 6084,
      "gagang": 6085,
      "gaduh": 6086,
      "menyanyi": 6087,
      "melata": 6088,
      "melangkah": 6089,
      "keran": 6090,
      "ukiran": 6091,
      "merahan": 6092,
      "sabut": 6093,
      "pantat": 6094,
      "pengumum": 6095,
      "penghantar": 6096,
      "pengurangan": 6097,
      "kelan": 6098,
      "kelim": 6099,
      "ampun": 6100,
      "selaras": 6101,
      "ray": 6102,
      "ragi": 6103,
      "lep": 6104,
      "nyaman": 6105,
      "otom": 6106,
      "serong": 6107,
      "seratus": 6108,
      "telunjuk": 6109,
      "mencur": 6110,
      "mencetak": 6111,
      "kemerah": 6112,
      "kemulia": 6113,
      "pigmen": 6114,
      "bilan": 6115,
      "peli": 6116,
      "pelam": 6117,
      "deka": 6118,
      "gero": 6119,
      "ayang": 6120,
      "kenyang": 6121,
      "wartawan": 6122,
      "mempertimbangkan": 6123,
      "taka": 6124,
      "takh": 6125,
      "bagiannya": 6126,
      "prot": 6127,
      "bini": 6128,
      "upkan": 6129,
      "ihkan": 6130,
      "makam": 6131,
      "gua": 6132,
      "gudang": 6133,
      "gubernur": 6134,
      "lembah": 6135,
      "ramalan": 6136,
      "katakan": 6137,
      "mengusut": 6138,
      "bukkan": 6139,
      "genta": 6140,
      "mengendarai": 6141,
      "guli": 6142,
      "gulungan": 6143,
      "renik": 6144,
      "tegar": 6145,
      "sultan": 6146,
      "menyelubung": 6147,
      "akhlak": 6148,
      "ketiga": 6149,
      "janganlah": 6150,
      "macamnya": 6151,
      "tumbuhtumbuhan": 6152,
      "rési": 6153,
      "tetapkan": 6154,
      "beraturan": 6155,
      "sirat": 6156,
      "bongkah": 6157,
      "panaskan": 6158,
      "tonggak": 6159,
      "coret": 6160,
      "bruk": 6161,
      "turunkan": 6162,
      "pergian": 6163,
      "menyajikan": 6164,
      "musyawar": 6165,
      "aksikan": 6166,
      "jalin": 6167,
      "sayup": 6168,
      "pencopet": 6169,
      "lasma": 6170,
      "bijih": 6171,
      "wangian": 6172,
      "penerbangan": 6173,
      "poros": 6174,
      "merendahkan": 6175,
      "gumpalan": 6176,
      "subjek": 6177,
      "rangsangan": 6178,
      "kemasukan": 6179,
      "beramai": 6180,
      "merekam": 6181,
      "kunjungan": 6182,
      "tersiar": 6183,
      "penentuan": 6184,
      "kecerdasan": 6185,
      "nitrogen": 6186,
      "kebebasan": 6187,
      "penyusunan": 6188,
      "kesadaran": 6189,
      "kromosom": 6190,
      "merapatkan": 6191,
      "mementingkan": 6192,
      "tenggorokan": 6193,
      "kemungkinan": 6194,
      "digantungkan": 6195,
      "diikatkan": 6196,
      "dimaksudkan": 6197,
      "prinsip": 6198,
      "Afrika": 6199,
      "asuransi": 6200,
      "publik": 6201,
      "kebahagiaan": 6202,
      "pengumuman": 6203,
      "(~": 6204,
      "38": 6205,
      "60": 6206,
      "Bahasa": 6207,
      "De": 6208,
      "Ke": 6209,
      "dék": 6210,
      "dér": 6211,
      "epi": 6212,
      "gop": 6213,
      "hem": 6214,
      "iakan": 6215,
      "kalam": 6216,
      "mos": 6217,
      "nal": 6218,
      "nakuti": 6219,
      "ront": 6220,
      "sop": 6221,
      "swas": 6222,
      "zarah": 6223,
      "anjung": 6224,
      "erot": 6225,
      "dio": 6226,
      "dibu": 6227,
      "diminum": 6228,
      "diminta": 6229,
      "ditetapkan": 6230,
      "dipanaskan": 6231,
      "diturunkan": 6232,
      "asah": 6233,
      "bera": 6234,
      "berdan": 6235,
      "bereng": 6236,
      "berbel": 6237,
      "berhak": 6238,
      "bertiang": 6239,
      "bersenjata": 6240,
      "berwenang": 6241,
      "bertimbun": 6242,
      "berdamp": 6243,
      "berguling": 6244,
      "tulen": 6245,
      "yapkan": 6246,
      "unjam": 6247,
      "seharus": 6248,
      "seekor": 6249,
      "kebur": 6250,
      "kesanggupan": 6251,
      "perangkat": 6252,
      "persau": 6253,
      "perlawanan": 6254,
      "inaan": 6255,
      "mengant": 6256,
      "terpen": 6257,
      "terbaring": 6258,
      "memo": 6259,
      "memad": 6260,
      "mematikan": 6261,
      "penangg": 6262,
      "penulis": 6263,
      "urunan": 6264,
      "baya": 6265,
      "dubur": 6266,
      "oleng": 6267,
      "bijak": 6268,
      "bijian": 6269,
      "onstr": 6270,
      "etkan": 6271,
      "ester": 6272,
      "estasi": 6273,
      "imer": 6274,
      "melilit": 6275,
      "ungi": 6276,
      "ulan": 6277,
      "itulah": 6278,
      "merampok": 6279,
      "ometri": 6280,
      "pengun": 6281,
      "kelat": 6282,
      "mudik": 6283,
      "rop": 6284,
      "halangan": 6285,
      "bepergian": 6286,
      "otok": 6287,
      "serum": 6288,
      "seruan": 6289,
      "telanjang": 6290,
      "menggiling": 6291,
      "semalam": 6292,
      "kurap": 6293,
      "seksual": 6294,
      "pelaku": 6295,
      "tikal": 6296,
      "debar": 6297,
      "gerah": 6298,
      "gerbang": 6299,
      "kening": 6300,
      "kulai": 6301,
      "bakti": 6302,
      "takaran": 6303,
      "antaranya": 6304,
      "balang": 6305,
      "koordin": 6306,
      "tetapan": 6307,
      "buahbuahan": 6308,
      "tambak": 6309,
      "menyebarkan": 6310,
      "mendalam": 6311,
      "unani": 6312,
      "awalan": 6313,
      "dilarang": 6314,
      "ompong": 6315,
      "konv": 6316,
      "lisan": 6317,
      "jungkir": 6318,
      "menganut": 6319,
      "bersihan": 6320,
      "carik": 6321,
      "distri": 6322,
      "menje": 6323,
      "kirakan": 6324,
      "menyelu": 6325,
      "catat": 6326,
      "peserta": 6327,
      "simpulan": 6328,
      "memudahkan": 6329,
      "laras": 6330,
      "taraf": 6331,
      "delima": 6332,
      "sirkan": 6333,
      "lendir": 6334,
      "giliran": 6335,
      "pengajaran": 6336,
      "heranan": 6337,
      "fera": 6338,
      "versi": 6339,
      "vertikal": 6340,
      "acuh": 6341,
      "lunas": 6342,
      "jerat": 6343,
      "penguasa": 6344,
      "pemukul": 6345,
      "cintaan": 6346,
      "tersebut": 6347,
      "bersangkut": 6348,
      "sirip": 6349,
      "kukuh": 6350,
      "rekaman": 6351,
      "mendidik": 6352,
      "menghindarkan": 6353,
      "wewenang": 6354,
      "mengulurkan": 6355,
      "dikukus": 6356,
      "cangkir": 6357,
      "tumpukan": 6358,
      "ditekan": 6359,
      "kelambu": 6360,
      "unggulan": 6361,
      "penambahan": 6362,
      "pertengkaran": 6363,
      "membahas": 6364,
      "anuitas": 6365,
      "penghasilan": 6366,
      "sangkar": 6367,
      "menghirup": 6368,
      "disajikan": 6369,
      "sokongan": 6370,
      "dilemparkan": 6371,
      "bunyinya": 6372,
      "perawatan": 6373,
      "pekerti": 6374,
      "vokal": 6375,
      "metabolisme": 6376,
      "merenggut": 6377,
      "cenderung": 6378,
      "bersahabat": 6379,
      "memahami": 6380,
      "penyelesaian": 6381,
      "memecahkan": 6382,
      "seharusnya": 6383,
      "persaudaraan": 6384,
      "39": 6385,
      "55": 6386,
      "78": 6387,
      "Astr": 6388,
      "Pul": 6389,
      "RI": 6390,
      "Ter": 6391,
      "Yang": 6392,
      "Yunani": 6393,
      "abut": 6394,
      "baki": 6395,
      "bér": 6396,
      "dos": 6397,
      "edi": 6398,
      "ekan": 6399,
      "fla": 6400,
      "jit": 6401,
      "lalang": 6402,
      "nat": 6403,
      "nera": 6404,
      "oan": 6405,
      "pori": 6406,
      "ven": 6407,
      "zir": 6408,
      "zakat": 6409,
      "étri": 6410,
      "atak": 6411,
      "menara": 6412,
      "menjam": 6413,
      "menilik": 6414,
      "menaf": 6415,
      "mentimun": 6416,
      "nganga": 6417,
      "dikem": 6418,
      "dihadap": 6419,
      "digit": 6420,
      "dinyany": 6421,
      "dihubungkan": 6422,
      "dipengaruhi": 6423,
      "embus": 6424,
      "alin": 6425,
      "alum": 6426,
      "asar": 6427,
      "berben": 6428,
      "bergan": 6429,
      "bertahan": 6430,
      "bermalam": 6431,
      "berjaga": 6432,
      "berlambang": 6433,
      "berkunjung": 6434,
      "buhi": 6435,
      "undangan": 6436,
      "sedia": 6437,
      "sebanding": 6438,
      "sepadan": 6439,
      "kesak": 6440,
      "kemenangan": 6441,
      "keadilan": 6442,
      "suap": 6443,
      "apik": 6444,
      "peranti": 6445,
      "perkebun": 6446,
      "mengapa": 6447,
      "mengay": 6448,
      "mengingat": 6449,
      "mengakhiri": 6450,
      "aur": 6451,
      "sian": 6452,
      "sisik": 6453,
      "teru": 6454,
      "terdakwa": 6455,
      "tercengang": 6456,
      "membor": 6457,
      "kukan": 6458,
      "kualitas": 6459,
      "orasi": 6460,
      "pendengaran": 6461,
      "penjajahan": 6462,
      "dawai": 6463,
      "kabel": 6464,
      "olik": 6465,
      "biri": 6466,
      "bisik": 6467,
      "oner": 6468,
      "menyo": 6469,
      "menyany": 6470,
      "menyaksikan": 6471,
      "etas": 6472,
      "enggan": 6473,
      "melarang": 6474,
      "melanj": 6475,
      "melimpah": 6476,
      "utamakan": 6477,
      "dahak": 6478,
      "keraj": 6479,
      "bari": 6480,
      "mero": 6481,
      "meron": 6482,
      "onggok": 6483,
      "omet": 6484,
      "tembang": 6485,
      "penggem": 6486,
      "keli": 6487,
      "keladi": 6488,
      "belanda": 6489,
      "hantam": 6490,
      "muara": 6491,
      "iaya": 6492,
      "selaku": 6493,
      "selokan": 6494,
      "lebur": 6495,
      "senam": 6496,
      "sendat": 6497,
      "bekan": 6498,
      "kecap": 6499,
      "menggil": 6500,
      "menggeser": 6501,
      "pelarut": 6502,
      "haram": 6503,
      "takaan": 6504,
      "dikat": 6505,
      "prof": 6506,
      "reak": 6507,
      "ogon": 6508,
      "balau": 6509,
      "ceran": 6510,
      "taruhan": 6511,
      "timbal": 6512,
      "mendam": 6513,
      "salak": 6514,
      "seorangan": 6515,
      "cambuk": 6516,
      "tegap": 6517,
      "sulur": 6518,
      "bolak": 6519,
      "bauan": 6520,
      "dini": 6521,
      "palem": 6522,
      "menjer": 6523,
      "usiaan": 6524,
      "kasur": 6525,
      "dohan": 6526,
      "simbol": 6527,
      "leksi": 6528,
      "abrak": 6529,
      "memuji": 6530,
      "haluskan": 6531,
      "beratap": 6532,
      "kinkan": 6533,
      "umumkan": 6534,
      "koma": 6535,
      "mengemu": 6536,
      "hambatan": 6537,
      "linder": 6538,
      "gilap": 6539,
      "lumut": 6540,
      "brata": 6541,
      "nisb": 6542,
      "mengigau": 6543,
      "rahim": 6544,
      "menyentak": 6545,
      "pencil": 6546,
      "afik": 6547,
      "tulus": 6548,
      "bengis": 6549,
      "dusun": 6550,
      "komposisi": 6551,
      "asalnya": 6552,
      "bergum": 6553,
      "membelit": 6554,
      "penerangan": 6555,
      "pertapa": 6556,
      "mengunyah": 6557,
      "populasi": 6558,
      "internasional": 6559,
      "jekan": 6560,
      "pengikat": 6561,
      "mendatangi": 6562,
      "menegakkan": 6563,
      "meneruskan": 6564,
      "penghulu": 6565,
      "berlagak": 6566,
      "mencampur": 6567,
      "memikul": 6568,
      "menukar": 6569,
      "sewajar": 6570,
      "bimbang": 6571,
      "menangani": 6572,
      "menyiram": 6573,
      "pelayanan": 6574,
      "kelopak": 6575,
      "kediaman": 6576,
      "dilepaskan": 6577,
      "fluor": 6578,
      "instrumen": 6579,
      "keahlian": 6580,
      "Inggris": 6581,
      "ketahuan": 6582,
      "kemuliaan": 6583,
      "gopoh": 6584,
      "dinyanyikan": 6585,
      "kerajinan": 6586,
      "49": 6587,
      "76": 6588,
      "89": 6589,
      "Kam": 6590,
      "Latin": 6591,
      "Pak": 6592,
      "Pro": 6593,
      "SI": 6594,
      "Si": 6595,
      "Sumat": 6596,
      "bra": 6597,
      "bru": 6598,
      "ganggang": 6599,
      "hus": 6600,
      "iden": 6601,
      "kati": 6602,
      "kli": 6603,
      "léng": 6604,
      "lurah": 6605,
      "minggu": 6606,
      "nar": 6607,
      "nakan": 6608,
      "oc": 6609,
      "parah": 6610,
      "presiden": 6611,
      "utusan": 6612,
      "vak": 6613,
      "wol": 6614,
      "xy": 6615,
      "anusiaan": 6616,
      "encang": 6617,
      "aks": 6618,
      "arlo": 6619,
      "menany": 6620,
      "dipin": 6621,
      "dipah": 6622,
      "ditahan": 6623,
      "ditutup": 6624,
      "dilambang": 6625,
      "disangka": 6626,
      "dipetik": 6627,
      "dianyam": 6628,
      "alog": 6629,
      "alkali": 6630,
      "berca": 6631,
      "berkeras": 6632,
      "berumur": 6633,
      "berwujud": 6634,
      "eli": 6635,
      "titi": 6636,
      "unikasi": 6637,
      "sekan": 6638,
      "sejauh": 6639,
      "setingkat": 6640,
      "seberang": 6641,
      "keban": 6642,
      "keteg": 6643,
      "keheranan": 6644,
      "peril": 6645,
      "perada": 6646,
      "perpus": 6647,
      "perseorangan": 6648,
      "siapkan": 6649,
      "siasat": 6650,
      "silinder": 6651,
      "terbalik": 6652,
      "tertiup": 6653,
      "terharu": 6654,
      "tercantum": 6655,
      "terpencil": 6656,
      "memal": 6657,
      "membung": 6658,
      "kuah": 6659,
      "kuas": 6660,
      "kuanti": 6661,
      "kuburan": 6662,
      "pensi": 6663,
      "penurunan": 6664,
      "dayakan": 6665,
      "ingi": 6666,
      "kawah": 6667,
      "olit": 6668,
      "biduk": 6669,
      "bioskop": 6670,
      "gizi": 6671,
      "ektif": 6672,
      "puas": 6673,
      "menyang": 6674,
      "menyangga": 6675,
      "imaan": 6676,
      "engkan": 6677,
      "ulama": 6678,
      "kerek": 6679,
      "benua": 6680,
      "omba": 6681,
      "omunikasi": 6682,
      "tabah": 6683,
      "riang": 6684,
      "panen": 6685,
      "pantun": 6686,
      "pancing": 6687,
      "pengaturan": 6688,
      "pengakuan": 6689,
      "pemin": 6690,
      "pembar": 6691,
      "banting": 6692,
      "selem": 6693,
      "egan": 6694,
      "lesu": 6695,
      "lega": 6696,
      "becek": 6697,
      "keci": 6698,
      "anggul": 6699,
      "anggapan": 6700,
      "semi": 6701,
      "kembar": 6702,
      "kré": 6703,
      "tumpul": 6704,
      "agung": 6705,
      "besok": 6706,
      "lancang": 6707,
      "pipit": 6708,
      "peluang": 6709,
      "pelangi": 6710,
      "pelengkap": 6711,
      "kecilkecil": 6712,
      "kendur": 6713,
      "memperbanyak": 6714,
      "gelen": 6715,
      "mesi": 6716,
      "deri": 6717,
      "takzim": 6718,
      "arahi": 6719,
      "proyek": 6720,
      "hasrat": 6721,
      "rumus": 6722,
      "rep": 6723,
      "uangnya": 6724,
      "balap": 6725,
      "butkan": 6726,
      "koperasi": 6727,
      "lempar": 6728,
      "lembing": 6729,
      "cerdas": 6730,
      "baginda": 6731,
      "pohonan": 6732,
      "payau": 6733,
      "motif": 6734,
      "konsentr": 6735,
      "cep": 6736,
      "gemetar": 6737,
      "terlanggar": 6738,
      "jamuan": 6739,
      "berkisar": 6740,
      "mengab": 6741,
      "mengaduk": 6742,
      "epai": 6743,
      "menerangi": 6744,
      "membual": 6745,
      "memanfa": 6746,
      "dihormati": 6747,
      "memukuli": 6748,
      "menunjang": 6749,
      "desakan": 6750,
      "depannya": 6751,
      "jumlahnya": 6752,
      "lokan": 6753,
      "horiz": 6754,
      "mobilnya": 6755,
      "corong": 6756,
      "teknologi": 6757,
      "limbah": 6758,
      "cekatan": 6759,
      "gantungan": 6760,
      "menyamakan": 6761,
      "ografis": 6762,
      "sore": 6763,
      "membela": 6764,
      "penerimaan": 6765,
      "meteor": 6766,
      "radioaktif": 6767,
      "tersedia": 6768,
      "struksi": 6769,
      "lokasi": 6770,
      "mikroskop": 6771,
      "berkerumun": 6772,
      "belanga": 6773,
      "mengoyak": 6774,
      "melancarkan": 6775,
      "berkilap": 6776,
      "kredit": 6777,
      "katakata": 6778,
      "melayani": 6779,
      "memulihkan": 6780,
      "menyinggung": 6781,
      "impangan": 6782,
      "memeluk": 6783,
      "mencampuri": 6784,
      "peduli": 6785,
      "menggigil": 6786,
      "melonjak": 6787,
      "1000": 6788,
      "menempelkan": 6789,
      "membatalkan": 6790,
      "menyindir": 6791,
      "mendongkol": 6792,
      "menggores": 6793,
      "pelayaran": 6794,
      "gugup": 6795,
      "vulkan": 6796,
      "jodoh": 6797,
      "kedokteran": 6798,
      "pengiriman": 6799,
      "pelacur": 6800,
      "menelaah": 6801,
      "pemecahan": 6802,
      "pertukaran": 6803,
      "wawancara": 6804,
      "bijaksana": 6805,
      "neraca": 6806,
      "perkebunan": 6807,
      "sewajarnya": 6808,
      "menanyakan": 6809,
      "dilambangkan": 6810,
      "memanfaatkan": 6811,
      "horizon": 6812,
      "Cal": 6813,
      "Di": 6814,
      "Mar": 6815,
      "PR": 6816,
      "Sul": 6817,
      "acak": 6818,
      "brak": 6819,
      "béng": 6820,
      "dm": 6821,
      "datan": 6822,
      "dalan": 6823,
      "déng": 6824,
      "etis": 6825,
      "ejekan": 6826,
      "fu": 6827,
      "frak": 6828,
      "fakat": 6829,
      "gek": 6830,
      "kini": 6831,
      "mark": 6832,
      "nol": 6833,
      "ocok": 6834,
      "ofon": 6835,
      "pala": 6836,
      "prem": 6837,
      "rer": 6838,
      "sant": 6839,
      "syah": 6840,
      "uda": 6841,
      "ve": 6842,
      "vo": 6843,
      "vasi": 6844,
      "vani": 6845,
      "ye": 6846,
      "za": 6847,
      "ze": 6848,
      "éri": 6849,
      "atasan": 6850,
      "aktivitas": 6851,
      "arta": 6852,
      "menit": 6853,
      "diat": 6854,
      "dibel": 6855,
      "disen": 6856,
      "dibelah": 6857,
      "dibangun": 6858,
      "dibubu": 6859,
      "diinjak": 6860,
      "dibandingkan": 6861,
      "aspal": 6862,
      "berbuah": 6863,
      "berdaging": 6864,
      "bertitik": 6865,
      "bertulang": 6866,
      "bersusah": 6867,
      "bertele": 6868,
      "berpisah": 6869,
      "berpengalaman": 6870,
      "bergoyang": 6871,
      "berjuang": 6872,
      "berharap": 6873,
      "keju": 6874,
      "kete": 6875,
      "kepun": 6876,
      "ketak": 6877,
      "kegag": 6878,
      "apit": 6879,
      "apasan": 6880,
      "peram": 6881,
      "persem": 6882,
      "perlin": 6883,
      "perekat": 6884,
      "perwakilan": 6885,
      "intel": 6886,
      "instansi": 6887,
      "mengis": 6888,
      "mengim": 6889,
      "mengalah": 6890,
      "mengotor": 6891,
      "mengungsi": 6892,
      "--)": 6893,
      "terna": 6894,
      "terbesar": 6895,
      "terseng": 6896,
      "kutuk": 6897,
      "penja": 6898,
      "penca": 6899,
      "pence": 6900,
      "pencuci": 6901,
      "dab": 6902,
      "dupa": 6903,
      "kabu": 6904,
      "kaji": 6905,
      "jawatan": 6906,
      "puhan": 6907,
      "gabus": 6908,
      "gayung": 6909,
      "menyokong": 6910,
      "este": 6911,
      "iringan": 6912,
      "drop": 6913,
      "melatih": 6914,
      "okar": 6915,
      "keron": 6916,
      "sabit": 6917,
      "ompa": 6918,
      "tembi": 6919,
      "temukan": 6920,
      "taat": 6921,
      "pancaran": 6922,
      "pembalut": 6923,
      "arium": 6924,
      "kipas": 6925,
      "selam": 6926,
      "selengkap": 6927,
      "lubuk": 6928,
      "layu": 6929,
      "bea": 6930,
      "betung": 6931,
      "serasi": 6932,
      "mencakup": 6933,
      "mengganj": 6934,
      "kempis": 6935,
      "tensi": 6936,
      "tenis": 6937,
      "agakan": 6938,
      "sekata": 6939,
      "bilitas": 6940,
      "pelat": 6941,
      "pelita": 6942,
      "petir": 6943,
      "detik": 6944,
      "naga": 6945,
      "trasi": 6946,
      "kendi": 6947,
      "kultur": 6948,
      "gelak": 6949,
      "apian": 6950,
      "apikan": 6951,
      "osong": 6952,
      "takuk": 6953,
      "dikun": 6954,
      "kapuk": 6955,
      "surga": 6956,
      "bintil": 6957,
      "reda": 6958,
      "ajakan": 6959,
      "balon": 6960,
      "tetangga": 6961,
      "lempeng": 6962,
      "rambu": 6963,
      "rambutan": 6964,
      "menyedih": 6965,
      "buni": 6966,
      "menguji": 6967,
      "erahkan": 6968,
      "salinan": 6969,
      "sisinya": 6970,
      "momen": 6971,
      "optis": 6972,
      "diperlakukan": 6973,
      "cuka": 6974,
      "cukur": 6975,
      "beruas": 6976,
      "mengendalikan": 6977,
      "mengancam": 6978,
      "menghamp": 6979,
      "pungan": 6980,
      "parit": 6981,
      "jamur": 6982,
      "mengerat": 6983,
      "sinte": 6984,
      "menyertai": 6985,
      "sukaan": 6986,
      "sumbat": 6987,
      "menjum": 6988,
      "gesekan": 6989,
      "akhiran": 6990,
      "ayap": 6991,
      "mesjid": 6992,
      "mengetuk": 6993,
      "kasus": 6994,
      "sukai": 6995,
      "tanggul": 6996,
      "melebar": 6997,
      "absor": 6998,
      "singgah": 6999,
      "demonstr": 7000,
      "menemukan": 7001,
      "kalian": 7002,
      "yatim": 7003,
      "guhkan": 7004,
      "lintang": 7005,
      "hormon": 7006,
      "tampaknya": 7007,
      "undangundang": 7008,
      "menepuk": 7009,
      "menyembelih": 7010,
      "mengikut": 7011,
      "menyayat": 7012,
      "musang": 7013,
      "menantu": 7014,
      "monyet": 7015,
      "menggerak": 7016,
      "menggertak": 7017,
      "kilap": 7018,
      "dipegang": 7019,
      "dipilih": 7020,
      "pendapatnya": 7021,
      "bersedih": 7022,
      "perniaga": 7023,
      "hitungkan": 7024,
      "penerbit": 7025,
      "gagap": 7026,
      "potensi": 7027,
      "rintik": 7028,
      "menceraikan": 7029,
      "nomina": 7030,
      "timbulnya": 7031,
      "mempelai": 7032,
      "sikapnya": 7033,
      "nafkah": 7034,
      "moral": 7035,
      "mencabik": 7036,
      "kesusastra": 7037,
      "aktifan": 7038,
      "meneliti": 7039,
      "menampakkan": 7040,
      "pengemudi": 7041,
      "mutunya": 7042,
      "relatif": 7043,
      "peledak": 7044,
      "menghindari": 7045,
      "simpanan": 7046,
      "renggang": 7047,
      "memecah": 7048,
      "huma": 7049,
      "dibiarkan": 7050,
      "paduan": 7051,
      "tergelincir": 7052,
      "memungkinkan": 7053,
      "pembuangan": 7054,
      "pembawaan": 7055,
      "menengok": 7056,
      "berlumpur": 7057,
      "terlanjur": 7058,
      "membinasakan": 7059,
      "tersinggung": 7060,
      "tempayan": 7061,
      "pencaharian": 7062,
      "pengawasan": 7063,
      "dahuluan": 7064,
      "selimut": 7065,
      "hotel": 7066,
      "dokumen": 7067,
      "Lebaran": 7068,
      "penyimpanan": 7069,
      "studi": 7070,
      "haid": 7071,
      "tergenang": 7072,
      "menyanyikan": 7073,
      "arloji": 7074,
      "kebanyakan": 7075,
      "perilaku": 7076,
      "perpustakaan": 7077,
      "dibubuhi": 7078,
      "menyedihkan": 7079,
      "kesusastraan": 7080,
      "200": 7081,
      "31": 7082,
      "34": 7083,
      "65": 7084,
      "88": 7085,
      "Cas": 7086,
      "Ge": 7087,
      "Komp": 7088,
      "Mah": 7089,
      "Pen": 7090,
      "Presiden": 7091,
      "Ser": 7092,
      "cék": 7093,
      "efisi": 7094,
      "fra": 7095,
      "gr": 7096,
      "guk": 7097,
      "got": 7098,
      "ija": 7099,
      "ijuk": 7100,
      "jok": 7101,
      "janggut": 7102,
      "khit": 7103,
      "mir": 7104,
      "nian": 7105,
      "rai": 7106,
      "rung": 7107,
      "syu": 7108,
      "uasa": 7109,
      "ujar": 7110,
      "wé": 7111,
      "are": 7112,
      "arwah": 7113,
      "menia": 7114,
      "menanti": 7115,
      "meniti": 7116,
      "menonton": 7117,
      "ngi": 7118,
      "dibat": 7119,
      "ditamp": 7120,
      "ditaruh": 7121,
      "dijemur": 7122,
      "alak": 7123,
      "bersa": 7124,
      "berjen": 7125,
      "berkelompok": 7126,
      "bergaya": 7127,
      "bermuatan": 7128,
      "berhias": 7129,
      "berjualan": 7130,
      "tubi": 7131,
      "tiri": 7132,
      "sepat": 7133,
      "setahun": 7134,
      "kegel": 7135,
      "kebal": 7136,
      "kebo": 7137,
      "kedel": 7138,
      "kesamaan": 7139,
      "keunggulan": 7140,
      "sukan": 7141,
      "suluh": 7142,
      "permu": 7143,
      "perab": 7144,
      "inten": 7145,
      "inding": 7146,
      "intai": 7147,
      "mengit": 7148,
      "sipil": 7149,
      "termin": 7150,
      "terbuang": 7151,
      "termenung": 7152,
      "terdorong": 7153,
      "ternganga": 7154,
      "membalut": 7155,
      "pencerna": 7156,
      "pendahuluan": 7157,
      "itor": 7158,
      "olan": 7159,
      "olos": 7160,
      "bisi": 7161,
      "onik": 7162,
      "ondong": 7163,
      "putan": 7164,
      "iklan": 7165,
      "menyet": 7166,
      "iruan": 7167,
      "dria": 7168,
      "melupakan": 7169,
      "melont": 7170,
      "okimia": 7171,
      "ulasi": 7172,
      "ultr": 7173,
      "asional": 7174,
      "merasakan": 7175,
      "merangkak": 7176,
      "sabungan": 7177,
      "tawa": 7178,
      "penggal": 7179,
      "pengharga": 7180,
      "pengamatan": 7181,
      "pengantar": 7182,
      "pengangkatan": 7183,
      "penghormatan": 7184,
      "penguraian": 7185,
      "pemarah": 7186,
      "pembuka": 7187,
      "pembangkit": 7188,
      "belerang": 7189,
      "bankan": 7190,
      "ampasan": 7191,
      "selera": 7192,
      "egak": 7193,
      "rohani": 7194,
      "hidangan": 7195,
      "lawak": 7196,
      "labor": 7197,
      "airah": 7198,
      "anggo": 7199,
      "angkalan": 7200,
      "semin": 7201,
      "kemun": 7202,
      "akuannya": 7203,
      "pidana": 7204,
      "departemen": 7205,
      "kenangan": 7206,
      "kenduri": 7207,
      "gandum": 7208,
      "mempertunjukkan": 7209,
      "jalani": 7210,
      "dikasi": 7211,
      "rumpun": 7212,
      "aden": 7213,
      "rebana": 7214,
      "yutan": 7215,
      "kalang": 7216,
      "kalor": 7217,
      "kalik": 7218,
      "dinginan": 7219,
      "penyimpangan": 7220,
      "sungkan": 7221,
      "tamat": 7222,
      "pohonnya": 7223,
      "éntal": 7224,
      "kumparan": 7225,
      "bunting": 7226,
      "tunai": 7227,
      "jenaz": 7228,
      "harian": 7229,
      "sakar": 7230,
      "sampul": 7231,
      "diperintah": 7232,
      "kunang": 7233,
      "jahitan": 7234,
      "mian": 7235,
      "migrasi": 7236,
      "berlatih": 7237,
      "berlomba": 7238,
      "bisnis": 7239,
      "gasing": 7240,
      "dagangkan": 7241,
      "jambu": 7242,
      "mengeringkan": 7243,
      "sintesis": 7244,
      "menyeru": 7245,
      "tegun": 7246,
      "membusuk": 7247,
      "menyelang": 7248,
      "ukurannya": 7249,
      "kasau": 7250,
      "darahnya": 7251,
      "abstr": 7252,
      "kolon": 7253,
      "kolong": 7254,
      "strat": 7255,
      "bayung": 7256,
      "artil": 7257,
      "sepoi": 7258,
      "beraneka": 7259,
      "mengembangkan": 7260,
      "tugasnya": 7261,
      "gilir": 7262,
      "pengawas": 7263,
      "membim": 7264,
      "lakil": 7265,
      "berkelok": 7266,
      "tekat": 7267,
      "hentian": 7268,
      "mahir": 7269,
      "menandakan": 7270,
      "menggele": 7271,
      "buruknya": 7272,
      "elektro": 7273,
      "boneka": 7274,
      "kaus": 7275,
      "tulkan": 7276,
      "bengkal": 7277,
      "silakan": 7278,
      "kosak": 7279,
      "waspada": 7280,
      "beradab": 7281,
      "lonceng": 7282,
      "kritis": 7283,
      "mengira": 7284,
      "lomba": 7285,
      "seperangkat": 7286,
      "fibr": 7287,
      "pangkalnya": 7288,
      "longgok": 7289,
      "berkait": 7290,
      "mengawinkan": 7291,
      "segitiga": 7292,
      "berkilau": 7293,
      "berseri": 7294,
      "melenyapkan": 7295,
      "kopiah": 7296,
      "menyusup": 7297,
      "menikmati": 7298,
      "bersenda": 7299,
      "mengungkapkan": 7300,
      "mencedok": 7301,
      "beruntun": 7302,
      "beredar": 7303,
      "memajukan": 7304,
      "Katolik": 7305,
      "melingkar": 7306,
      "menghibur": 7307,
      "ditimbulkan": 7308,
      "fosfor": 7309,
      "menjelaskan": 7310,
      "disembelih": 7311,
      "permadani": 7312,
      "umpama": 7313,
      "mengacaukan": 7314,
      "stitusi": 7315,
      "meluluskan": 7316,
      "penipu": 7317,
      "menyombongkan": 7318,
      "tepinya": 7319,
      "kerikil": 7320,
      "gelembung": 7321,
      "parasit": 7322,
      "undupan": 7323,
      "bersandar": 7324,
      "mekar": 7325,
      "honor": 7326,
      "albumin": 7327,
      "Menteri": 7328,
      "perisai": 7329,
      "mencurahkan": 7330,
      "takhta": 7331,
      "berdampingan": 7332,
      "keburukan": 7333,
      "Pulau": 7334,
      "digital": 7335,
      "melanjutkan": 7336,
      "Sumatra": 7337,
      "mesiu": 7338,
      "konsentrasi": 7339,
      "tembikar": 7340,
      "perniagaan": 7341,
      "penghargaan": 7342,
      "jenazah": 7343,
      "(±": 7344,
      "44": 7345,
      "67": 7346,
      "69": 7347,
      "Min": 7348,
      "Rama": 7349,
      "Tuan": 7350,
      "dongan": 7351,
      "dél": 7352,
      "dwi": 7353,
      "datuk": 7354,
      "eus": 7355,
      "gara": 7356,
      "guruh": 7357,
      "glik": 7358,
      "hek": 7359,
      "homo": 7360,
      "juran": 7361,
      "kton": 7362,
      "lén": 7363,
      "nia": 7364,
      "nangka": 7365,
      "nira": 7366,
      "odi": 7367,
      "ohan": 7368,
      "oyak": 7369,
      "pauk": 7370,
      "ratu": 7371,
      "rela": 7372,
      "tét": 7373,
      "tapai": 7374,
      "uar": 7375,
      "encer": 7376,
      "aktu": 7377,
      "menat": 7378,
      "mentega": 7379,
      "nge": 7380,
      "diag": 7381,
      "dicer": 7382,
      "diolah": 7383,
      "dihukum": 7384,
      "diputus": 7385,
      "dibalas": 7386,
      "diusahakan": 7387,
      "dioksida": 7388,
      "diiringi": 7389,
      "disukai": 7390,
      "empuk": 7391,
      "alel": 7392,
      "asmara": 7393,
      "asrama": 7394,
      "bermuka": 7395,
      "berakar": 7396,
      "berdinding": 7397,
      "berbaris": 7398,
      "berwajib": 7399,
      "berniat": 7400,
      "berbelit": 7401,
      "bertumpuk": 7402,
      "bersungut": 7403,
      "tuannya": 7404,
      "bujur": 7405,
      "tiban": 7406,
      "una": 7407,
      "unus": 7408,
      "undung": 7409,
      "seum": 7410,
      "sekr": 7411,
      "setinggi": 7412,
      "kekel": 7413,
      "keting": 7414,
      "kejang": 7415,
      "ketul": 7416,
      "kesimpulan": 7417,
      "sup": 7418,
      "pertik": 7419,
      "perde": 7420,
      "perintang": 7421,
      "pergau": 7422,
      "persenyawaan": 7423,
      "perjamuan": 7424,
      "inal": 7425,
      "indar": 7426,
      "mengus": 7427,
      "mengait": 7428,
      "mengangguk": 7429,
      "menginginkan": 7430,
      "mengutamakan": 7431,
      "siur": 7432,
      "tersel": 7433,
      "tersung": 7434,
      "teramat": 7435,
      "terdahulu": 7436,
      "terhormat": 7437,
      "terpelihara": 7438,
      "terurai": 7439,
      "terhuyung": 7440,
      "memek": 7441,
      "memaki": 7442,
      "memburu": 7443,
      "membebaskan": 7444,
      "kuhan": 7445,
      "orot": 7446,
      "penjual": 7447,
      "pendengar": 7448,
      "dulikan": 7449,
      "kaget": 7450,
      "javani": 7451,
      "olak": 7452,
      "atuhi": 7453,
      "umbu": 7454,
      "gik": 7455,
      "onkan": 7456,
      "putik": 7457,
      "putusan": 7458,
      "gaan": 7459,
      "gado": 7460,
      "menyurat": 7461,
      "esahan": 7462,
      "melak": 7463,
      "melal": 7464,
      "melanda": 7465,
      "okrat": 7466,
      "asiakan": 7467,
      "kerah": 7468,
      "kertak": 7469,
      "kersik": 7470,
      "keribu": 7471,
      "merobek": 7472,
      "saji": 7473,
      "omorf": 7474,
      "tabel": 7475,
      "pengambil": 7476,
      "pengubahan": 7477,
      "pengguna": 7478,
      "pemus": 7479,
      "pematang": 7480,
      "pembas": 7481,
      "pembeli": 7482,
      "kelel": 7483,
      "kelek": 7484,
      "keleng": 7485,
      "patokan": 7486,
      "belalang": 7487,
      "arida": 7488,
      "ainan": 7489,
      "seli": 7490,
      "selir": 7491,
      "selul": 7492,
      "egar": 7493,
      "egahan": 7494,
      "raba": 7495,
      "lup": 7496,
      "lusuh": 7497,
      "yakni": 7498,
      "letih": 7499,
      "lay": 7500,
      "jua": 7501,
      "bungsu": 7502,
      "bungaan": 7503,
      "otek": 7504,
      "serem": 7505,
      "angkali": 7506,
      "semu": 7507,
      "semata": 7508,
      "sembilan": 7509,
      "tumpang": 7510,
      "tendangan": 7511,
      "ohkan": 7512,
      "kurungan": 7513,
      "agukan": 7514,
      "paka": 7515,
      "manjur": 7516,
      "seks": 7517,
      "sekun": 7518,
      "tebing": 7519,
      "landai": 7520,
      "pelanggaran": 7521,
      "caci": 7522,
      "naz": 7523,
      "ganjal": 7524,
      "mempert": 7525,
      "gundul": 7526,
      "mawar": 7527,
      "gelanggang": 7528,
      "karcis": 7529,
      "mewah": 7530,
      "memengar": 7531,
      "pasal": 7532,
      "reka": 7533,
      "klas": 7534,
      "sanaan": 7535,
      "baiknya": 7536,
      "ihwal": 7537,
      "atasnya": 7538,
      "tetes": 7539,
      "kalsium": 7540,
      "gugat": 7541,
      "lemas": 7542,
      "penyekat": 7543,
      "sungan": 7544,
      "kumis": 7545,
      "menyetujui": 7546,
      "saleh": 7547,
      "tinjau": 7548,
      "sampaikan": 7549,
      "diperbuat": 7550,
      "diperhatikan": 7551,
      "cucuran": 7552,
      "obot": 7553,
      "cedera": 7554,
      "gempar": 7555,
      "gembor": 7556,
      "parlemen": 7557,
      "mengaji": 7558,
      "mengabaikan": 7559,
      "epasan": 7560,
      "bersiap": 7561,
      "bersilang": 7562,
      "menuduh": 7563,
      "sosi": 7564,
      "trip": 7565,
      "membubuhi": 7566,
      "mengecil": 7567,
      "simpai": 7568,
      "curah": 7569,
      "dasarnya": 7570,
      "larik": 7571,
      "logis": 7572,
      "osit": 7573,
      "bonggol": 7574,
      "tocarpus": 7575,
      "sepit": 7576,
      "beliung": 7577,
      "korek": 7578,
      "membidik": 7579,
      "lumbung": 7580,
      "menepati": 7581,
      "berkelakar": 7582,
      "berkeliaran": 7583,
      "abuan": 7584,
      "menyemburkan": 7585,
      "kaitan": 7586,
      "girangan": 7587,
      "bolehkan": 7588,
      "memercik": 7589,
      "baliknya": 7590,
      "verba": 7591,
      "hijauan": 7592,
      "mengurung": 7593,
      "muram": 7594,
      "sorak": 7595,
      "menumpuk": 7596,
      "hubungannya": 7597,
      "lelang": 7598,
      "tuanku": 7599,
      "membentak": 7600,
      "ekornya": 7601,
      "potret": 7602,
      "empap": 7603,
      "membereskan": 7604,
      "bibirnya": 7605,
      "kripsi": 7606,
      "mengintai": 7607,
      "enggara": 7608,
      "transaksi": 7609,
      "alistis": 7610,
      "buktikan": 7611,
      "tonjol": 7612,
      "bermacammacam": 7613,
      "lompat": 7614,
      "daranya": 7615,
      "menetap": 7616,
      "cumbu": 7617,
      "mengamati": 7618,
      "menelungkup": 7619,
      "getahnya": 7620,
      "latar": 7621,
      "penghuni": 7622,
      "berkilauan": 7623,
      "topang": 7624,
      "menggabungkan": 7625,
      "loreng": 7626,
      "berdebar": 7627,
      "ziarah": 7628,
      "berlabuh": 7629,
      "pameran": 7630,
      "menggenangi": 7631,
      "terbentur": 7632,
      "cukai": 7633,
      "sekejap": 7634,
      "memiara": 7635,
      "penjagaan": 7636,
      "jengkel": 7637,
      "dirancang": 7638,
      "dinamis": 7639,
      "mencipta": 7640,
      "bergabung": 7641,
      "pertengahan": 7642,
      "berkobar": 7643,
      "Bud": 7644,
      "terendah": 7645,
      "nuklir": 7646,
      "ancaman": 7647,
      "bergerigi": 7648,
      "mengepalai": 7649,
      "tersembul": 7650,
      "spontan": 7651,
      "jasmani": 7652,
      "ekonomian": 7653,
      "menyukai": 7654,
      "novel": 7655,
      "penetapan": 7656,
      "ikhtisar": 7657,
      "ucapannya": 7658,
      "pemelihara": 7659,
      "glukosa": 7660,
      "menyelubungi": 7661,
      "mengantarkan": 7662,
      "kesaktian": 7663,
      "horizontal": 7664,
      "perlindungan": 7665,
      "pencernaan": 7666,
      "lakilaki": 7667,
      "kosakata": 7668,
      "perdebatan": 7669,
      "pergaulan": 7670,
      "keributan": 7671,
      "memengaruhi": 7672,
      "(=": 7673,
      "Adm": 7674,
      "Cy": 7675,
      "Can": 7676,
      "Mase": 7677,
      "Re": 7678,
      "Sur": 7679,
      "abah": 7680,
      "ayak": 7681,
      "ayai": 7682,
      "adin": 7683,
      "bén": 7684,
      "catan": 7685,
      "dun": 7686,
      "fl": 7687,
      "fén": 7688,
      "fajar": 7689,
      "ic": 7690,
      "két": 7691,
      "mohon": 7692,
      "nak": 7693,
      "oper": 7694,
      "pari": 7695,
      "peta": 7696,
      "sonan": 7697,
      "talam": 7698,
      "vel": 7699,
      "vet": 7700,
      "veg": 7701,
      "valu": 7702,
      "wasiat": 7703,
      "yup": 7704,
      "yanya": 7705,
      "zina": 7706,
      "zinkan": 7707,
      "ero": 7708,
      "erkan": 7709,
      "enda": 7710,
      "akro": 7711,
      "aren": 7712,
      "argu": 7713,
      "angkup": 7714,
      "menuru": 7715,
      "menabrak": 7716,
      "dilah": 7717,
      "dibay": 7718,
      "dialami": 7719,
      "embri": 7720,
      "asak": 7721,
      "berli": 7722,
      "bertar": 7723,
      "berdarah": 7724,
      "berbatas": 7725,
      "bermutu": 7726,
      "berperan": 7727,
      "bermanfaat": 7728,
      "berduka": 7729,
      "berpusing": 7730,
      "tupan": 7731,
      "elemen": 7732,
      "busa": 7733,
      "bujang": 7734,
      "sedan": 7735,
      "sebarang": 7736,
      "sesuka": 7737,
      "sederajat": 7738,
      "kepi": 7739,
      "kegembira": 7740,
      "kegirangan": 7741,
      "apat": 7742,
      "apar": 7743,
      "percintaan": 7744,
      "mengiringi": 7745,
      "menghantam": 7746,
      "sibur": 7747,
      "sihir": 7748,
      "terc": 7749,
      "terangan": 7750,
      "tertidur": 7751,
      "teringat": 7752,
      "tergila": 7753,
      "terbayang": 7754,
      "tertimpa": 7755,
      "memohon": 7756,
      "membengkok": 7757,
      "memamah": 7758,
      "penangk": 7759,
      "pentas": 7760,
      "pensil": 7761,
      "dagar": 7762,
      "ingus": 7763,
      "kaf": 7764,
      "jago": 7765,
      "olakan": 7766,
      "umkan": 7767,
      "ikkan": 7768,
      "orangorang": 7769,
      "menyar": 7770,
      "menyangka": 7771,
      "menyangkal": 7772,
      "impun": 7773,
      "imbalan": 7774,
      "melar": 7775,
      "melek": 7776,
      "melaf": 7777,
      "melengkapi": 7778,
      "atanya": 7779,
      "utnya": 7780,
      "bensin": 7781,
      "sabuk": 7782,
      "paan": 7783,
      "padah": 7784,
      "padam": 7785,
      "riah": 7786,
      "rigi": 7787,
      "pantang": 7788,
      "penggabungan": 7789,
      "pembuahan": 7790,
      "pemisah": 7791,
      "pemisahan": 7792,
      "kelima": 7793,
      "kelakuannya": 7794,
      "kelainan": 7795,
      "paten": 7796,
      "belu": 7797,
      "banan": 7798,
      "selamanya": 7799,
      "hiper": 7800,
      "seniman": 7801,
      "serasa": 7802,
      "serabut": 7803,
      "telungkup": 7804,
      "mencopet": 7805,
      "menggon": 7806,
      "semang": 7807,
      "sembar": 7808,
      "sempat": 7809,
      "kemeja": 7810,
      "kemalangan": 7811,
      "jijik": 7812,
      "sudahan": 7813,
      "arko": 7814,
      "ohok": 7815,
      "pakat": 7816,
      "tebrata": 7817,
      "pelepasan": 7818,
      "tikkan": 7819,
      "peka": 7820,
      "pejuang": 7821,
      "pedalaman": 7822,
      "geretan": 7823,
      "tris": 7824,
      "trompet": 7825,
      "ayunan": 7826,
      "kulak": 7827,
      "mempermainkan": 7828,
      "gundik": 7829,
      "geladak": 7830,
      "meyak": 7831,
      "banyakbanyak": 7832,
      "osoh": 7833,
      "hadis": 7834,
      "bincang": 7835,
      "ajaib": 7836,
      "makro": 7837,
      "kepah": 7838,
      "gubahan": 7839,
      "cerat": 7840,
      "kateg": 7841,
      "bunan": 7842,
      "salju": 7843,
      "awet": 7844,
      "tunangan": 7845,
      "bagaikan": 7846,
      "modul": 7847,
      "gentar": 7848,
      "genderang": 7849,
      "saksama": 7850,
      "samu": 7851,
      "sambutan": 7852,
      "konser": 7853,
      "kontr": 7854,
      "kontak": 7855,
      "konsis": 7856,
      "konden": 7857,
      "matrik": 7858,
      "jaksanaan": 7859,
      "berujung": 7860,
      "gembur": 7861,
      "gemuruh": 7862,
      "gambir": 7863,
      "baskan": 7864,
      "meredakan": 7865,
      "terlarut": 7866,
      "renang": 7867,
      "rente": 7868,
      "jauhi": 7869,
      "penyakitnya": 7870,
      "sinyal": 7871,
      "menyerbu": 7872,
      "cina": 7873,
      "mengadili": 7874,
      "masuknya": 7875,
      "menerkam": 7876,
      "menerbitkan": 7877,
      "soda": 7878,
      "membujur": 7879,
      "menjilat": 7880,
      "geologi": 7881,
      "celup": 7882,
      "tampil": 7883,
      "simpang": 7884,
      "abdi": 7885,
      "menunda": 7886,
      "menundukkan": 7887,
      "birakan": 7888,
      "akhirat": 7889,
      "singa": 7890,
      "bingungan": 7891,
      "tengahnya": 7892,
      "0000": 7893,
      "artinya": 7894,
      "artikel": 7895,
      "kombin": 7896,
      "meninggi": 7897,
      "hamilan": 7898,
      "luks": 7899,
      "lukis": 7900,
      "menenangkan": 7901,
      "laksana": 7902,
      "rapuh": 7903,
      "menebang": 7904,
      "terusan": 7905,
      "menyembul": 7906,
      "brakan": 7907,
      "orien": 7908,
      "mengizinkan": 7909,
      "limpah": 7910,
      "diplom": 7911,
      "menyamai": 7912,
      "bersetubuh": 7913,
      "melibatkan": 7914,
      "muridnya": 7915,
      "sawahnya": 7916,
      "menumpah": 7917,
      "utangnya": 7918,
      "luntur": 7919,
      "penerima": 7920,
      "kebijaksanaan": 7921,
      "hidrat": 7922,
      "pengaruhnya": 7923,
      "menyiangi": 7924,
      "penyebab": 7925,
      "berselang": 7926,
      "kawannya": 7927,
      "nasibnya": 7928,
      "interaksi": 7929,
      "internet": 7930,
      "janjikan": 7931,
      "satunya": 7932,
      "meluap": 7933,
      "mangu": 7934,
      "Artocarpus": 7935,
      "meneguhkan": 7936,
      "mikroorganisme": 7937,
      "sublema": 7938,
      "ditempel": 7939,
      "ditempuh": 7940,
      "menggembirakan": 7941,
      "penyerahan": 7942,
      "penyerapan": 7943,
      "norma": 7944,
      "gramatik": 7945,
      "penghapus": 7946,
      "menuliskan": 7947,
      "fitnah": 7948,
      "ringgit": 7949,
      "kebenarannya": 7950,
      "menikah": 7951,
      "karbonat": 7952,
      "melambung": 7953,
      "mengarungi": 7954,
      "pembebasan": 7955,
      "terserak": 7956,
      "bertuah": 7957,
      "sekehendak": 7958,
      "belukar": 7959,
      "biarpun": 7960,
      "menekankan": 7961,
      "pembelahan": 7962,
      "netral": 7963,
      "saing": 7964,
      "menduduki": 7965,
      "finisi": 7966,
      "peninggalan": 7967,
      "valensi": 7968,
      "melumatkan": 7969,
      "piringan": 7970,
      "meresap": 7971,
      "penyusun": 7972,
      "spektrum": 7973,
      "dipiara": 7974,
      "sebaiknya": 7975,
      "curiga": 7976,
      "dihiasi": 7977,
      "bermusuhan": 7978,
      "malaikat": 7979,
      "pendudukan": 7980,
      "yarakatan": 7981,
      "dimensi": 7982,
      "universitas": 7983,
      "penyulingan": 7984,
      "menyalahi": 7985,
      "berikutnya": 7986,
      "administrasi": 7987,
      "bendahara": 7988,
      "hipotesis": 7989,
      "penakut": 7990,
      "musyawarah": 7991,
      "swasta": 7992,
      "dikemukakan": 7993,
      "mengayuh": 7994,
      "mengemudikan": 7995,
      "gelendong": 7996,
      "dibatasi": 7997,
      "kedelai": 7998,
      "laboratorium": 7999,
      "pertikaian": 8000,
      "Masehi": 8001,
      "menuruti": 8002,
      "dilahirkan": 8003,
      "dibayarkan": 8004,
      "kegembiraan": 8005,
      "matriks": 8006,
      "gramatikal": 8007,
      "-,": 8008,
      "32": 8009,
      "74": 8010,
      "95": 8011,
      "BA": 8012,
      "Bi": 8013,
      "Cor": 8014,
      "OH": 8015,
      "Pi": 8016,
      "Yog": 8017,
      "Yahu": 8018,
      "aah": 8019,
      "adap": 8020,
      "abang": 8021,
      "bati": 8022,
      "bél": 8023,
      "caranya": 8024,
      "dop": 8025,
      "fr": 8026,
      "jis": 8027,
      "kér": 8028,
      "kolo": 8029,
      "kisah": 8030,
      "kangkang": 8031,
      "lengk": 8032,
      "luruh": 8033,
      "lalap": 8034,
      "misi": 8035,
      "ning": 8036,
      "nanya": 8037,
      "ope": 8038,
      "pok": 8039,
      "pram": 8040,
      "pangkan": 8041,
      "patuh": 8042,
      "pompa": 8043,
      "sali": 8044,
      "saput": 8045,
      "tasa": 8046,
      "uf": 8047,
      "ubin": 8048,
      "ys": 8049,
      "yeh": 8050,
      "yongan": 8051,
      "”;": 8052,
      "anorganik": 8053,
      "erman": 8054,
      "enta": 8055,
      "atlet": 8056,
      "menek": 8057,
      "menata": 8058,
      "menjahit": 8059,
      "menjalani": 8060,
      "ahut": 8061,
      "diur": 8062,
      "dina": 8063,
      "dikep": 8064,
      "digar": 8065,
      "dicin": 8066,
      "diduga": 8067,
      "dicuci": 8068,
      "alun": 8069,
      "asinya": 8070,
      "bercak": 8071,
      "bertulis": 8072,
      "bercerita": 8073,
      "berbalik": 8074,
      "bergigi": 8075,
      "berbiji": 8076,
      "bersumber": 8077,
      "bergembira": 8078,
      "berlutut": 8079,
      "bermuk": 8080,
      "berpasangan": 8081,
      "berjudi": 8082,
      "berduyun": 8083,
      "ambang": 8084,
      "ambung": 8085,
      "kanji": 8086,
      "buangan": 8087,
      "buih": 8088,
      "bupati": 8089,
      "tiaan": 8090,
      "aiki": 8091,
      "sedapat": 8092,
      "separuh": 8093,
      "sekret": 8094,
      "sebaliknya": 8095,
      "kesay": 8096,
      "keberhasil": 8097,
      "ketetapan": 8098,
      "kebersihan": 8099,
      "kebingungan": 8100,
      "suar": 8101,
      "sulap": 8102,
      "peren": 8103,
      "peraga": 8104,
      "percek": 8105,
      "perlaku": 8106,
      "perputaran": 8107,
      "iner": 8108,
      "indra": 8109,
      "mengamp": 8110,
      "mengapung": 8111,
      "mengimbang": 8112,
      "mengangsur": 8113,
      "mengais": 8114,
      "mengerahkan": 8115,
      "autan": 8116,
      "terkel": 8117,
      "terasing": 8118,
      "terbukti": 8119,
      "terhalang": 8120,
      "terkulai": 8121,
      "membunyikan": 8122,
      "membohong": 8123,
      "mempengaruhi": 8124,
      "memarahi": 8125,
      "penasihat": 8126,
      "penjuru": 8127,
      "penopang": 8128,
      "ilya": 8129,
      "isl": 8130,
      "olongan": 8131,
      "atum": 8132,
      "atut": 8133,
      "umpan": 8134,
      "gika": 8135,
      "ekologi": 8136,
      "ekspor": 8137,
      "ikiran": 8138,
      "menyobek": 8139,
      "usang": 8140,
      "tanjung": 8141,
      "imbuhan": 8142,
      "dron": 8143,
      "melangk": 8144,
      "melurus": 8145,
      "melarat": 8146,
      "ulurkan": 8147,
      "asihati": 8148,
      "benci": 8149,
      "bendanya": 8150,
      "benturan": 8151,
      "merdu": 8152,
      "merana": 8153,
      "meraih": 8154,
      "merapikan": 8155,
      "omi": 8156,
      "dapati": 8157,
      "pengatur": 8158,
      "penggulung": 8159,
      "pemil": 8160,
      "pemikiran": 8161,
      "beling": 8162,
      "belut": 8163,
      "belian": 8164,
      "ariat": 8165,
      "ampak": 8166,
      "kiang": 8167,
      "kijang": 8168,
      "kiamat": 8169,
      "lepa": 8170,
      "lesung": 8171,
      "lecet": 8172,
      "hida": 8173,
      "beter": 8174,
      "kecapi": 8175,
      "ehkan": 8176,
      "serang": 8177,
      "serikat": 8178,
      "mencair": 8179,
      "licik": 8180,
      "seman": 8181,
      "semah": 8182,
      "seminggu": 8183,
      "semoga": 8184,
      "krim": 8185,
      "kurban": 8186,
      "manja": 8187,
      "manaj": 8188,
      "sekon": 8189,
      "beserta": 8190,
      "piutang": 8191,
      "pelit": 8192,
      "pelbagai": 8193,
      "cabut": 8194,
      "beriba": 8195,
      "pekan": 8196,
      "petinju": 8197,
      "dewi": 8198,
      "kentung": 8199,
      "warni": 8200,
      "mempercepat": 8201,
      "memperdayakan": 8202,
      "mac": 8203,
      "karak": 8204,
      "media": 8205,
      "propa": 8206,
      "uangkan": 8207,
      "tungku": 8208,
      "tunggu": 8209,
      "mulus": 8210,
      "kodok": 8211,
      "kepingan": 8212,
      "rumahku": 8213,
      "cerah": 8214,
      "cerew": 8215,
      "tengkar": 8216,
      "timba": 8217,
      "inium": 8218,
      "menyeber": 8219,
      "menyewa": 8220,
      "mendo": 8221,
      "mendatar": 8222,
      "cakapkan": 8223,
      "keluaran": 8224,
      "kelupas": 8225,
      "pisahkan": 8226,
      "tinja": 8227,
      "opor": 8228,
      "cupak": 8229,
      "obrak": 8230,
      "merebus": 8231,
      "terlindung": 8232,
      "jamkan": 8233,
      "sindir": 8234,
      "membayangkan": 8235,
      "menyering": 8236,
      "toran": 8237,
      "teguran": 8238,
      "keluarnya": 8239,
      "berkh": 8240,
      "ranjau": 8241,
      "sumbang": 8242,
      "sumsum": 8243,
      "sumbing": 8244,
      "membubuhkan": 8245,
      "dirus": 8246,
      "haka": 8247,
      "gesek": 8248,
      "rakus": 8249,
      "denda": 8250,
      "damaian": 8251,
      "lingkung": 8252,
      "bangsaan": 8253,
      "tanggapan": 8254,
      "curkan": 8255,
      "larat": 8256,
      "osil": 8257,
      "remeh": 8258,
      "bayan": 8259,
      "logika": 8260,
      "hamburan": 8261,
      "jelis": 8262,
      "membiayai": 8263,
      "tongkol": 8264,
      "saudagar": 8265,
      "tekun": 8266,
      "orida": 8267,
      "menyusul": 8268,
      "menyucikan": 8269,
      "kilau": 8270,
      "perangai": 8271,
      "pencem": 8272,
      "bawaan": 8273,
      "silau": 8274,
      "cemer": 8275,
      "cemar": 8276,
      "cempaka": 8277,
      "120": 8278,
      "penuhi": 8279,
      "roma": 8280,
      "bergetar": 8281,
      "pernapasan": 8282,
      "kelihatannya": 8283,
      "metam": 8284,
      "cula": 8285,
      "menghadapkan": 8286,
      "lehernya": 8287,
      "wuf": 8288,
      "diterbitkan": 8289,
      "menidurkan": 8290,
      "magnét": 8291,
      "menyiapkan": 8292,
      "petasan": 8293,
      "tersedu": 8294,
      "oksidasi": 8295,
      "hidungnya": 8296,
      "melubangi": 8297,
      "mencuar": 8298,
      "mencukupi": 8299,
      "merugi": 8300,
      "luluh": 8301,
      "meterai": 8302,
      "pengembangan": 8303,
      "menghargai": 8304,
      "sawo": 8305,
      "bergantian": 8306,
      "zoa": 8307,
      "berderai": 8308,
      "menyingkir": 8309,
      "pemberontak": 8310,
      "pedulikan": 8311,
      "mengajarkan": 8312,
      "merundingkan": 8313,
      "menyalurkan": 8314,
      "tersentuh": 8315,
      "pembelian": 8316,
      "mengapit": 8317,
      "semestinya": 8318,
      "galian": 8319,
      "mayang": 8320,
      "mengorek": 8321,
      "memungut": 8322,
      "perseroan": 8323,
      "mengesahkan": 8324,
      "biotik": 8325,
      "terhindar": 8326,
      "total": 8327,
      "spesif": 8328,
      "dihidangkan": 8329,
      "investasi": 8330,
      "menghapuskan": 8331,
      "menyuruk": 8332,
      "diajak": 8333,
      "bersalin": 8334,
      "ditempatkan": 8335,
      "gelagat": 8336,
      "ditembakkan": 8337,
      "otomatis": 8338,
      "distribusi": 8339,
      "Kamus": 8340,
      "dipahami": 8341,
      "peradaban": 8342,
      "sintetis": 8343,
      "kebodohan": 8344,
      "anggotanya": 8345,
      "diputuskan": 8346,
      "sekrup": 8347,
      "pengambilan": 8348,
      "pemeliharaan": 8349,
      "valuasi": 8350,
      "melafalkan": 8351,
      "Yahudi": 8352,
      "percekcokan": 8353,
      "cerewet": 8354,
      "!;": 8355,
      "68": 8356,
      "72": 8357,
      "Ag": 8358,
      "Bapak": 8359,
      "DPR": 8360,
      "Ha": 8361,
      "Hin": 8362,
      "Hij": 8363,
      "Op": 8364,
      "Pal": 8365,
      "SM": 8366,
      "Su": 8367,
      "Sya": 8368,
      "Sunda": 8369,
      "Tengah": 8370,
      "Utara": 8371,
      "adang": 8372,
      "cuh": 8373,
      "dmat": 8374,
      "fam": 8375,
      "fis": 8376,
      "garan": 8377,
      "glo": 8378,
      "gampang": 8379,
      "ikuti": 8380,
      "kasan": 8381,
      "kél": 8382,
      "kiranya": 8383,
      "lampai": 8384,
      "mm": 8385,
      "masi": 8386,
      "mot": 8387,
      "mangg": 8388,
      "mér": 8389,
      "martil": 8390,
      "nek": 8391,
      "nut": 8392,
      "narko": 8393,
      "oka": 8394,
      "ogi": 8395,
      "pres": 8396,
      "rn": 8397,
      "santai": 8398,
      "tama": 8399,
      "uistik": 8400,
      "vé": 8401,
      "ania": 8402,
      "erator": 8403,
      "ening": 8404,
      "menis": 8405,
      "menir": 8406,
      "menul": 8407,
      "menjauh": 8408,
      "mendaki": 8409,
      "dipik": 8410,
      "diganti": 8411,
      "dilipat": 8412,
      "disayang": 8413,
      "dibunyikan": 8414,
      "ditolak": 8415,
      "dimuat": 8416,
      "ema": 8417,
      "empas": 8418,
      "asya": 8419,
      "aset": 8420,
      "berbatang": 8421,
      "berdiam": 8422,
      "berkedudukan": 8423,
      "bernilai": 8424,
      "berseru": 8425,
      "berjanji": 8426,
      "bermalas": 8427,
      "berurutan": 8428,
      "berbelanja": 8429,
      "bertolak": 8430,
      "bernanah": 8431,
      "berbahagia": 8432,
      "berjumpa": 8433,
      "tuang": 8434,
      "tuna": 8435,
      "ele": 8436,
      "amon": 8437,
      "ambah": 8438,
      "ambai": 8439,
      "ambing": 8440,
      "kanker": 8441,
      "buai": 8442,
      "bujukan": 8443,
      "buyung": 8444,
      "butiran": 8445,
      "setang": 8446,
      "sebulan": 8447,
      "sehelai": 8448,
      "seuntai": 8449,
      "kees": 8450,
      "kepak": 8451,
      "kesat": 8452,
      "kemenyan": 8453,
      "kesukaan": 8454,
      "kedinginan": 8455,
      "suf": 8456,
      "super": 8457,
      "sudu": 8458,
      "susut": 8459,
      "apel": 8460,
      "pergel": 8461,
      "perhimpunan": 8462,
      "perekonomian": 8463,
      "inaran": 8464,
      "mengulang": 8465,
      "menghukum": 8466,
      "menghaluskan": 8467,
      "mengumumkan": 8468,
      "aum": 8469,
      "sikl": 8470,
      "terung": 8471,
      "terlebih": 8472,
      "terpenting": 8473,
      "terjem": 8474,
      "terpengaruh": 8475,
      "terayun": 8476,
      "terlupa": 8477,
      "terkatung": 8478,
      "terhambat": 8479,
      "memalu": 8480,
      "memih": 8481,
      "membandingkan": 8482,
      "kuar": 8483,
      "oritas": 8484,
      "peneg": 8485,
      "pencak": 8486,
      "dagu": 8487,
      "dadanya": 8488,
      "ilang": 8489,
      "isak": 8490,
      "kajang": 8491,
      "kacangan": 8492,
      "jajaran": 8493,
      "umbai": 8494,
      "biara": 8495,
      "puting": 8496,
      "pusar": 8497,
      "gaun": 8498,
      "gajinya": 8499,
      "orangan": 8500,
      "tandu": 8501,
      "imi": 8502,
      "imis": 8503,
      "impung": 8504,
      "drat": 8505,
      "ulam": 8506,
      "uling": 8507,
      "ulasan": 8508,
      "utamanya": 8509,
      "benak": 8510,
      "barangkali": 8511,
      "merung": 8512,
      "merpati": 8513,
      "meraung": 8514,
      "merdeka": 8515,
      "temper": 8516,
      "taji": 8517,
      "tabuh": 8518,
      "panc": 8519,
      "penggolong": 8520,
      "pengesahan": 8521,
      "pemung": 8522,
      "pembentuk": 8523,
      "pemberat": 8524,
      "pembatasan": 8525,
      "pembacaan": 8526,
      "kela": 8527,
      "kelin": 8528,
      "keluh": 8529,
      "kelakar": 8530,
      "kelela": 8531,
      "belat": 8532,
      "museum": 8533,
      "ampl": 8534,
      "kih": 8535,
      "wabah": 8536,
      "seling": 8537,
      "rayu": 8538,
      "radasi": 8539,
      "batal": 8540,
      "baterai": 8541,
      "yakin": 8542,
      "ledakan": 8543,
      "hiu": 8544,
      "labi": 8545,
      "lajur": 8546,
      "lacur": 8547,
      "jub": 8548,
      "senja": 8549,
      "bega": 8550,
      "bedah": 8551,
      "betik": 8552,
      "beduk": 8553,
      "angko": 8554,
      "mencam": 8555,
      "mencontoh": 8556,
      "mencencang": 8557,
      "mencintai": 8558,
      "menggum": 8559,
      "lid": 8560,
      "kemih": 8561,
      "kemili": 8562,
      "tumbang": 8563,
      "tenung": 8564,
      "kurik": 8565,
      "tepuk": 8566,
      "piatu": 8567,
      "piala": 8568,
      "picik": 8569,
      "pelac": 8570,
      "pelayan": 8571,
      "deo": 8572,
      "gerangan": 8573,
      "trin": 8574,
      "ayanya": 8575,
      "hartanya": 8576,
      "kentang": 8577,
      "ganja": 8578,
      "memperken": 8579,
      "maz": 8580,
      "majelis": 8581,
      "karbo": 8582,
      "medium": 8583,
      "pasak": 8584,
      "osot": 8585,
      "hasta": 8586,
      "kapak": 8587,
      "ref": 8588,
      "balkan": 8589,
      "maknanya": 8590,
      "kepang": 8591,
      "sekalipun": 8592,
      "lembik": 8593,
      "penyokong": 8594,
      "penyinaran": 8595,
      "ceraian": 8596,
      "tamak": 8597,
      "tampan": 8598,
      "tambul": 8599,
      "timpang": 8600,
      "galang": 8601,
      "wahyu": 8602,
      "hidupkan": 8603,
      "mendekatkan": 8604,
      "lamban": 8605,
      "jenuh": 8606,
      "mode": 8607,
      "dilum": 8608,
      "optim": 8609,
      "kunya": 8610,
      "kuncup": 8611,
      "kontin": 8612,
      "konsonan": 8613,
      "berlanggaran": 8614,
      "menghe": 8615,
      "terlaksan": 8616,
      "kurangnya": 8617,
      "éksp": 8618,
      "mengeraskan": 8619,
      "membawakan": 8620,
      "suluk": 8621,
      "ingankan": 8622,
      "carut": 8623,
      "membubung": 8624,
      "mengelakkan": 8625,
      "pulut": 8626,
      "haruskan": 8627,
      "siksa": 8628,
      "rakit": 8629,
      "tujuannya": 8630,
      "cele": 8631,
      "campak": 8632,
      "jurang": 8633,
      "mudahan": 8634,
      "simpangan": 8635,
      "tangguk": 8636,
      "meletup": 8637,
      "meletus": 8638,
      "golek": 8639,
      "réng": 8640,
      "memuaskan": 8641,
      "menunduk": 8642,
      "biruan": 8643,
      "singkan": 8644,
      "kolom": 8645,
      "kusta": 8646,
      "disetujui": 8647,
      "desas": 8648,
      "destar": 8649,
      "salahkan": 8650,
      "osiasi": 8651,
      "lentur": 8652,
      "lincah": 8653,
      "lukkan": 8654,
      "kesetiaan": 8655,
      "apakah": 8656,
      "pengacau": 8657,
      "pengawal": 8658,
      "lumpuh": 8659,
      "menebus": 8660,
      "fermentasi": 8661,
      "menyembur": 8662,
      "sungguhsungguh": 8663,
      "brah": 8664,
      "ketertiban": 8665,
      "nipah": 8666,
      "resah": 8667,
      "menyapa": 8668,
      "musnah": 8669,
      "menggeli": 8670,
      "mono": 8671,
      "disiapkan": 8672,
      "menggerek": 8673,
      "bondong": 8674,
      "trop": 8675,
      "acik": 8676,
      "menambatkan": 8677,
      "diamkan": 8678,
      "silikat": 8679,
      "bersejarah": 8680,
      "primer": 8681,
      "marga": 8682,
      "berkedip": 8683,
      "dikehendaki": 8684,
      "adikku": 8685,
      "viol": 8686,
      "metro": 8687,
      "membanggakan": 8688,
      "penguat": 8689,
      "menabur": 8690,
      "loncat": 8691,
      "sunting": 8692,
      "pindahkan": 8693,
      "memukulkan": 8694,
      "merencanakan": 8695,
      "luhur": 8696,
      "transpor": 8697,
      "meramal": 8698,
      "ingatannya": 8699,
      "geseran": 8700,
      "jaraknya": 8701,
      "agih": 8702,
      "diutus": 8703,
      "abadi": 8704,
      "pangkatnya": 8705,
      "meluas": 8706,
      "mangsanya": 8707,
      "kesalahannya": 8708,
      "Antr": 8709,
      "umurnya": 8710,
      "rekening": 8711,
      "dicuri": 8712,
      "menegur": 8713,
      "berangsur": 8714,
      "merusuh": 8715,
      "perbanyakan": 8716,
      "mencomel": 8717,
      "tomi": 8718,
      "sempurnaan": 8719,
      "pelepah": 8720,
      "menghindar": 8721,
      "melenting": 8722,
      "azan": 8723,
      "mengobrol": 8724,
      "berlaga": 8725,
      "menghamburkan": 8726,
      "pembebat": 8727,
      "lilit": 8728,
      "menggendong": 8729,
      "penggantian": 8730,
      "bereaksi": 8731,
      "memedulikan": 8732,
      "jangkrik": 8733,
      "testan": 8734,
      "meruncing": 8735,
      "penawar": 8736,
      "menyalakan": 8737,
      "khayalan": 8738,
      "ditebang": 8739,
      "indica": 8740,
      "tersenyum": 8741,
      "memabukkan": 8742,
      "ofili": 8743,
      "perantaraan": 8744,
      "peningkatan": 8745,
      "efektif": 8746,
      "datangani": 8747,
      "kekalahan": 8748,
      "menggoreng": 8749,
      "wisatawan": 8750,
      "direntangkan": 8751,
      "mekanis": 8752,
      "membahayakan": 8753,
      "genggam": 8754,
      "begini": 8755,
      "pengasingan": 8756,
      "Bugis": 8757,
      "predikat": 8758,
      "mengingkari": 8759,
      "stensil": 8760,
      "mengakali": 8761,
      "mencelupkan": 8762,
      "dikirimkan": 8763,
      "kekebalan": 8764,
      "telegram": 8765,
      "neraka": 8766,
      "memusatkan": 8767,
      "penanaman": 8768,
      "mencocokkan": 8769,
      "ditujukan": 8770,
      "tekstil": 8771,
      "ketenangan": 8772,
      "nyenyak": 8773,
      "mengatupkan": 8774,
      "piano": 8775,
      "bercekcok": 8776,
      "menafsirkan": 8777,
      "profesi": 8778,
      "brukan": 8779,
      "dikunyah": 8780,
      "efisien": 8781,
      "ijazah": 8782,
      "nazar": 8783,
      "veget": 8784,
      "embrio": 8785,
      "sembarangan": 8786,
      "kombinasi": 8787,
      "ditempelkan": 8788,
      "tasawuf": 8789,
      "kesayangan": 8790,
      "perlakuan": 8791,
      "meluruskan": 8792,
      "Hijriah": 8793,
      "memihak": 8794,
      "kelelawar": 8795,
      "kemiliteran": 8796,
      "42": 8797,
      "500": 8798,
      "98": 8799,
      "Ayah": 8800,
      "Bag": 8801,
      "Cit": 8802,
      "Jerman": 8803,
      "Pus": 8804,
      "Paus": 8805,
      "Zul": 8806,
      "amen": 8807,
      "adukan": 8808,
      "bro": 8809,
      "bre": 8810,
      "bapan": 8811,
      "bingan": 8812,
      "cuan": 8813,
      "canggung": 8814,
      "caing": 8815,
      "deh": 8816,
      "edu": 8817,
      "etika": 8818,
      "fluks": 8819,
      "gom": 8820,
      "gengg": 8821,
      "hayat": 8822,
      "hangus": 8823,
      "iar": 8824,
      "icus": 8825,
      "jurusan": 8826,
      "langgar": 8827,
      "lengkapi": 8828,
      "opi": 8829,
      "odik": 8830,
      "plin": 8831,
      "pangkalan": 8832,
      "rar": 8833,
      "rangg": 8834,
      "sét": 8835,
      "tala": 8836,
      "tapa": 8837,
      "tarkan": 8838,
      "uban": 8839,
      "uger": 8840,
      "zon": 8841,
      "zikir": 8842,
      "éna": 8843,
      "ans": 8844,
      "ens": 8845,
      "aksara": 8846,
      "artis": 8847,
      "menor": 8848,
      "mendung": 8849,
      "menaj": 8850,
      "menjauhi": 8851,
      "dipu": 8852,
      "dilu": 8853,
      "ditun": 8854,
      "diturut": 8855,
      "dicocok": 8856,
      "dikeliling": 8857,
      "digulung": 8858,
      "difikasi": 8859,
      "diinginkan": 8860,
      "disampaikan": 8861,
      "dipenuhi": 8862,
      "emba": 8863,
      "emasan": 8864,
      "alik": 8865,
      "alfa": 8866,
      "asama": 8867,
      "berka": 8868,
      "bertah": 8869,
      "berbadan": 8870,
      "beragama": 8871,
      "bertat": 8872,
      "berpengaruh": 8873,
      "berpangkat": 8874,
      "berbelang": 8875,
      "berbutir": 8876,
      "bergulung": 8877,
      "beradu": 8878,
      "berpadu": 8879,
      "berdesak": 8880,
      "tulah": 8881,
      "amang": 8882,
      "amati": 8883,
      "amalan": 8884,
      "bujuk": 8885,
      "tit": 8886,
      "tipe": 8887,
      "tilam": 8888,
      "titas": 8889,
      "unit": 8890,
      "sebut": 8891,
      "sejah": 8892,
      "sekian": 8893,
      "kepan": 8894,
      "kebat": 8895,
      "ketel": 8896,
      "kepul": 8897,
      "kesopan": 8898,
      "kebangsaan": 8899,
      "kesempurnaan": 8900,
      "susila": 8901,
      "apah": 8902,
      "perum": 8903,
      "perken": 8904,
      "perawan": 8905,
      "persaw": 8906,
      "perbatasan": 8907,
      "perapian": 8908,
      "insaf": 8909,
      "mengup": 8910,
      "mengamat": 8911,
      "mengotot": 8912,
      "audi": 8913,
      "sida": 8914,
      "sibar": 8915,
      "sikat": 8916,
      "terik": 8917,
      "terpe": 8918,
      "terpal": 8919,
      "tersendiri": 8920,
      "terdiam": 8921,
      "tertipu": 8922,
      "tergolong": 8923,
      "terganggu": 8924,
      "tersirat": 8925,
      "memberan": 8926,
      "memburuk": 8927,
      "membalik": 8928,
      "membatik": 8929,
      "kuang": 8930,
      "kuit": 8931,
      "kukur": 8932,
      "kuduk": 8933,
      "kuhkan": 8934,
      "penar": 8935,
      "penil": 8936,
      "penangkap": 8937,
      "penanda": 8938,
      "pendingin": 8939,
      "dae": 8940,
      "ism": 8941,
      "itanya": 8942,
      "kabul": 8943,
      "jagat": 8944,
      "ole": 8945,
      "olaan": 8946,
      "biakan": 8947,
      "bibi": 8948,
      "giran": 8949,
      "ekseku": 8950,
      "puak": 8951,
      "pukan": 8952,
      "puannya": 8953,
      "ikal": 8954,
      "gabung": 8955,
      "menyekat": 8956,
      "menyaring": 8957,
      "ustr": 8958,
      "tantangan": 8959,
      "tandas": 8960,
      "dri": 8961,
      "engat": 8962,
      "meles": 8963,
      "ungkit": 8964,
      "uta": 8965,
      "keré": 8966,
      "kerdil": 8967,
      "benjol": 8968,
      "bendungan": 8969,
      "merum": 8970,
      "merayap": 8971,
      "ombongan": 8972,
      "payu": 8973,
      "dapkan": 8974,
      "tajuk": 8975,
      "riba": 8976,
      "rium": 8977,
      "pankre": 8978,
      "penghan": 8979,
      "pengisap": 8980,
      "pembersih": 8981,
      "kelong": 8982,
      "bangau": 8983,
      "bangku": 8984,
      "hana": 8985,
      "muji": 8986,
      "wajar": 8987,
      "selin": 8988,
      "rodi": 8989,
      "yakarta": 8990,
      "lekan": 8991,
      "lezat": 8992,
      "hibur": 8993,
      "nyiru": 8994,
      "judul": 8995,
      "otret": 8996,
      "kecek": 8997,
      "kecok": 8998,
      "kecoh": 8999,
      "kecuri": 9000,
      "telentang": 9001,
      "menggaris": 9002,
      "liber": 9003,
      "liur": 9004,
      "liuk": 9005,
      "kemanusiaan": 9006,
      "tumit": 9007,
      "pakatan": 9008,
      "mandir": 9009,
      "manamana": 9010,
      "tepas": 9011,
      "lanjutan": 9012,
      "alutan": 9013,
      "pelem": 9014,
      "pelap": 9015,
      "peluk": 9016,
      "pelukis": 9017,
      "cabul": 9018,
      "tikam": 9019,
      "pedati": 9020,
      "apaapa": 9021,
      "gerag": 9022,
      "gertak": 9023,
      "gerbong": 9024,
      "gerilya": 9025,
      "ayati": 9026,
      "kenang": 9027,
      "kendali": 9028,
      "maya": 9029,
      "majikan": 9030,
      "gelo": 9031,
      "mega": 9032,
      "mewujudkan": 9033,
      "buatannya": 9034,
      "derai": 9035,
      "pastian": 9036,
      "arahkan": 9037,
      "had": 9038,
      "prose": 9039,
      "rumbia": 9040,
      "antasi": 9041,
      "kapai": 9042,
      "surya": 9043,
      "revolusi": 9044,
      "pakaiannya": 9045,
      "klau": 9046,
      "klorida": 9047,
      "sandang": 9048,
      "sandaran": 9049,
      "mini": 9050,
      "tunggul": 9051,
      "tanahnya": 9052,
      "langkan": 9053,
      "garang": 9054,
      "penying": 9055,
      "tampung": 9056,
      "janin": 9057,
      "menyebar": 9058,
      "lamasi": 9059,
      "darma": 9060,
      "tuntun": 9061,
      "jenjang": 9062,
      "hinggap": 9063,
      "bendaan": 9064,
      "dilapisi": 9065,
      "ompang": 9066,
      "optik": 9067,
      "konon": 9068,
      "konsul": 9069,
      "obli": 9070,
      "obos": 9071,
      "cecak": 9072,
      "mengena": 9073,
      "gamet": 9074,
      "menghina": 9075,
      "menghela": 9076,
      "renyuk": 9077,
      "benarbenar": 9078,
      "jauhan": 9079,
      "jamu": 9080,
      "talang": 9081,
      "mengacung": 9082,
      "bersisa": 9083,
      "bersisik": 9084,
      "menerjang": 9085,
      "segolongan": 9086,
      "mengeluh": 9087,
      "menjolok": 9088,
      "gede": 9089,
      "kiriman": 9090,
      "malap": 9091,
      "tifikasi": 9092,
      "lenggang": 9093,
      "tampang": 9094,
      "lingkup": 9095,
      "singkong": 9096,
      "sudkan": 9097,
      "menemui": 9098,
      "belakangan": 9099,
      "senggang": 9100,
      "mengembus": 9101,
      "menentu": 9102,
      "pengayuh": 9103,
      "pinggiran": 9104,
      "saudaranya": 9105,
      "menebas": 9106,
      "menyembah": 9107,
      "menyemprot": 9108,
      "gurun": 9109,
      "gokan": 9110,
      "goda": 9111,
      "batasnya": 9112,
      "disiplin": 9113,
      "menyuap": 9114,
      "dipanggang": 9115,
      "bonceng": 9116,
      "afkan": 9117,
      "tarif": 9118,
      "dongeng": 9119,
      "vertebrata": 9120,
      "foya": 9121,
      "format": 9122,
      "cemburu": 9123,
      "menyamar": 9124,
      "keduanya": 9125,
      "kayuan": 9126,
      "150": 9127,
      "nila": 9128,
      "toksin": 9129,
      "leluasa": 9130,
      "melintas": 9131,
      "membelok": 9132,
      "membelokkan": 9133,
      "khasiat": 9134,
      "gagak": 9135,
      "putusnya": 9136,
      "mengundurkan": 9137,
      "kadangkadang": 9138,
      "membeku": 9139,
      "membetulkan": 9140,
      "hidrolisis": 9141,
      "penyelundupan": 9142,
      "blok": 9143,
      "meniup": 9144,
      "enggek": 9145,
      "berkuah": 9146,
      "nikel": 9147,
      "menindas": 9148,
      "pengim": 9149,
      "Androp": 9150,
      "mengasuh": 9151,
      "mengasapi": 9152,
      "160": 9153,
      "menakutkan": 9154,
      "bersambut": 9155,
      "longi": 9156,
      "longsor": 9157,
[...]
